/**
  ******************************************************************************
  * @file    network_data_params.c
  * @author  AST Embedded Analytics Research Platform
  * @date    2025-03-20T11:32:51+0100
  * @brief   AI Tool Automatic Code Generator for Embedded NN computing
  ******************************************************************************
  * Copyright (c) 2025 STMicroelectronics.
  * All rights reserved.
  *
  * This software is licensed under terms that can be found in the LICENSE file
  * in the root directory of this software component.
  * If no LICENSE file comes with this software, it is provided AS-IS.
  ******************************************************************************
  */

#include "network_data_params.h"


/**  Activations Section  ****************************************************/
ai_handle g_network_activations_table[1 + 2] = {
  AI_HANDLE_PTR(AI_MAGIC_MARKER),
  AI_HANDLE_PTR(NULL),
  AI_HANDLE_PTR(AI_MAGIC_MARKER),
};




/**  Weights Section  ********************************************************/
AI_ALIGNED(32)
const ai_u64 s_network_weights_array_u64[39619] = {
  0x3cbf5b833c7b9944U, 0x3e24eaedbc8712f5U, 0xbd7f15963cbad00dU, 0xbcca27d4bdaaf530U,
  0x3c664c00bd19c590U, 0x3bc386f03dbd6294U, 0x3d289c08bd33f9f8U, 0x3c2e79a0bdb3ee0eU,
  0xbd6e1cdf3dbee2dcU, 0x3ca9cec8bcd477fcU, 0xbc3e2dd0bbd4bc60U, 0x3dd125c0bdc37fc0U,
  0xbd8daaf23dcb258eU, 0x3d4edb67be1d010bU, 0xbd5a00fc3da8f200U, 0x3cc5d5083cd28b38U,
  0x3d9ca6a0bd823e76U, 0x3d8ca7f6bd336f46U, 0xbdcc8ba8bdce63f7U, 0x3d464874bd17ce78U,
  0x3bf33920bd4babbaU, 0xbd125e82bcec5bd4U, 0xba30d6a5bbd041f0U, 0x3d2da96fbdf11d1dU,
  0xbddac0923d7c763cU, 0x3dc545f2bda2843dU, 0xbd6ddff23ca920d8U, 0x3d2d8c05be2134e6U,
  0x3cc665b6be008313U, 0xbd455e253dcd3530U, 0xbded1cc5bd7eb1adU, 0x3d8d5bc33d157d35U,
  0xbd9b062c3c72024cU, 0xbd3086923d7152d8U, 0xbd95b0683d8db8beU, 0xbdaa37883d7288b0U,
  0x3c81d8b0bd2fa594U, 0xbdcaa48f3cac20a8U, 0x3d51594abde49bd5U, 0x3c73943dbdf6a542U,
  0xbda8dc1f3d547d5cU, 0x3d5157d4bcecbdc0U, 0xbdb04a85bdac8c8dU, 0x3d4b1bc4bde6e90fU,
  0xbd012f81bcfb8719U, 0x3c811d22bd32680aU, 0x3e5015ccbc776ef9U, 0xbd1d4d1a3dbe80ddU,
  0xbc308e70bd7e3559U, 0x3dd74f223d87335eU, 0x3d03c228bda35862U, 0xbd0e7b9cbd9ff11dU,
  0x3d8462363d4e0960U, 0xbcd3e448bc776108U, 0xbd5019debc22c848U, 0x3c9497e0bda48518U,
  0xbcd8ca40bd854d6fU, 0xbda6b834bd85c536U, 0xba90e011ba2520a0U, 0x3e0f4c5c3bc1a09eU,
  0xbe28dc9abd378383U, 0x3e3fc2d83d45de56U, 0xbd58ca0ebde882a8U, 0xbd370ec23d7395f0U,
  0x3d8d94f03c4aeaa8U, 0x3d640ffa3d6acc9eU, 0xbe84addbbc56c46dU, 0xbd05452a3d25b4ebU,
  0xbd14211c3d7a274cU, 0x3db6c044bd7c1de9U, 0x3d74f76fbcd5614aU, 0xbea556f03c17dd77U,
  0xbe05e110bcbf7805U, 0x3d01ef7c3d7f02d4U, 0xbe080c4ebbfe43f5U, 0xbc75fb983c79a0d8U,
  0xbd1d14debd38d970U, 0xbdf19b893dc8af58U, 0x3beae9a9bd09226bU, 0x3e24d4473df8f9f9U,
  0x3dbacb9cbd7ea899U, 0xbd096742bc5ef6d7U, 0x3d8da6e43d2b3afcU, 0xbcf256c93d4faec5U,
  0x3dc1805abc14cd3dU, 0xbca51880bd3c8460U, 0xbd3c242cbdcfce78U, 0x3ceff3b3bdb4d2a4U,
  0x3d0b6894bd5da25eU, 0xbe0fac97be3baf5eU, 0x3cbbbf403dc2e9a4U, 0x3d8ee316bd9ea7e2U,
  0x3d5c0d1cbdd52220U, 0xbd9393f2bd00aa52U, 0x3d78ae8c3db885e6U, 0x3db5af7d3cdf685bU,
  0x3daad5febcb4f368U, 0x3d874a5ebdf3cc38U, 0x3b8858bdbcfe8301U, 0xbdd89bdd3e5c4e15U,
  0xbd954300bdeb68c7U, 0x3dacb75b3d46e41eU, 0xbda2b6e2bd80669cU, 0xbd9fc7c23d9278d6U,
  0xbd11f1c83d5e6ce4U, 0x3dd943f6bdb69bc6U, 0xbd07ebb2bb8ff770U, 0xbd3157d6bd872314U,
  0xbd8fe4533d1d8f54U, 0x3dd672cabc184ed0U, 0x3daffc12bd828716U, 0x3d8e0c68bdb010adU,
  0xbd8dab9dbc9df69cU, 0x3c708b2ebd2ae934U, 0x3d3a8c20bd501051U, 0xbd8953aebdcd0c62U,
  0xbead3df33d5664d7U, 0xbd04d9fabd79f450U, 0xbd76ad393d58d2bcU, 0x3dd81e3a3c2ce248U,
  0xbdb676d5bd42111cU, 0xbe8407953d27f65aU, 0x3da393ac3abd1a92U, 0x3c6f1d08be036371U,
  0xbd7bef383e57b83bU, 0xbd58652bbdd8f46fU, 0x3d8944c0bdb39cdeU, 0xbda5ce4a3d26bcf0U,
  0x3cc05d50bdd65ecfU, 0x3df9403ebccc5755U, 0xbd9bcd51bd8e3bbbU, 0x3e28fa0a3c2c6ed2U,
  0x3d9fef5e3df01a5dU, 0xbd49244f3db1fd78U, 0xbd7585f83d43df18U, 0xbda877093ba62cc4U,
  0x3cae1fae3c62466aU, 0x3d19e5903b22e91cU, 0xbcce4964bd2939a4U, 0xbd39a154bdad9f46U,
  0xbd9a616abe1a077fU, 0xbe518ba53d231484U, 0x3dbbdc743dea07c7U, 0xbd891bf23d8592deU,
  0x3dd146263ddc51b8U, 0x3cf45b00bd6bb5a2U, 0x3d8ee2fabd81c8adU, 0xbdce75f8bdc92be0U,
  0xbc9909e43db3bf66U, 0x3e209e2d3c955ac1U, 0xbd9631483da17562U, 0xbe7beba23c430e80U,
  0xbd16982e3c9893baU, 0xbd201f2ebd8ab998U, 0xbdb9ad4a3d8d22f6U, 0x3d97e5a73d2faa76U,
  0xbe6cd204bc83af43U, 0x3d31ee4b3d896063U, 0xbce5f5833d727b8cU, 0xbd0271703e9f46c9U,
  0x3d720728bb426e00U, 0xbdce556cbdd9266bU, 0xbd05968ebd94a510U, 0xbd7cae97bd8c1f00U,
  0x3d8cff8cbc7def00U, 0xbdb90d6cbd13283aU, 0xbe9403273d3e5c3bU, 0x3cfebf07bd4c3af7U,
  0x3b824a4ebc5709beU, 0xbd7e8392bdd1f847U, 0x3cbe1cc0bd80e730U, 0x3dc3fa7ebd80768eU,
  0x3d1177a1bda5e6acU, 0xbc9ebabc3dd21af1U, 0xbdb322fd3bda7a7eU, 0xbd872654bb27dd7dU,
  0xbe7f2a153d07638aU, 0xbe192570bdd793c7U, 0x3d1d2b79b9a21ff2U, 0xbdb694edbdfaf888U,
  0x3d2542d5bd09e349U, 0xbc90a1223b5ba843U, 0xbd8bfe2ebd80f9c5U, 0xbd2384863dbac1deU,
  0xbc9c14f83d9cf922U, 0x3dc65ab63dbc2672U, 0x3dca0bd8bd86d206U, 0xbddb0b7ebc2d11b0U,
  0xbdba92173da88dd8U, 0x3dc9d1323d12ea78U, 0xbdb48815bd7282caU, 0xbe1c2ec83ccb1458U,
  0xbdaf88983d9e5af5U, 0x3c896ea13df0736aU, 0xbe24d5d8bdf432a2U, 0x3d1dca6b3cdaf378U,
  0xbd6cf7b23adde09fU, 0xbdadd393bdce90ebU, 0xbdd7b15bbd47d3edU, 0xbd3e6d5abc093a20U,
  0x3ccede493cbc9f3bU, 0x3c906bdbbc17d4c5U, 0xbcfb4b433d5dc846U, 0x3c00fb9bbd3e613fU,
  0x3dde3788be3a2e95U, 0xbce33ddabd2c96f6U, 0xbd172df53c95de46U, 0x3dd43485bd389147U,
  0xbd3a83d73dc846e6U, 0xbd3f4a8c3e838ff3U, 0xbd5ae23fbd2ac33aU, 0x3db2715ebdc9167aU,
  0x3c5b052cbd924e0eU, 0x3cad137ebd3f7120U, 0x3be0e64cbe82c448U, 0xbd0fa8b03d730facU,
  0xbdc188b3bda0237aU, 0x3c9e9f383dd681ecU, 0xbb4dd800bda27011U, 0xbcd496e4bdd746f9U,
  0x3db3f287bcb65fc4U, 0x3de9a38abc9e5a18U, 0x3c647710bcc0e88eU, 0xbdcc45003c8db818U,
  0x3dd2f6b43cfff728U, 0xbda2f4d4be0d1635U, 0x3e4c90183d24ef5cU, 0x3c8995003cdae450U,
  0xbdd053123cb49bc0U, 0x3d4d2c383dc8ec7eU, 0x3cb4fee83cf25430U, 0x3d51b9c0bd536790U,
  0xbd4d5aab3d8ebfc0U, 0xbb82a640bd57d507U, 0x3dbf98eebd5fc142U, 0x3d48bce53d2ddd75U,
  0x3d0c2ee5bd31ba3eU, 0xbd4f72073e205211U, 0xbd81b45b3dce3d44U, 0x3d2a84443d3d527cU,
  0xbc868023bda99d98U, 0xbe4976853d1d2ae5U, 0x3da0ed7ebde3efd2U, 0xbd4df6943d28f938U,
  0x3cb130783db5610eU, 0xbd409d1f3da9d49aU, 0x3e971970bc60f304U, 0xbc0197eabc9fbde2U,
  0x3be7f8a83d889b33U, 0xbdca68aabe116c09U, 0xbcc480c1bcf807a6U, 0x3d5a40793d01936aU,
  0xbd4fc1dabe2c6229U, 0xbdc00ff23dcc69feU, 0x3d8306c63d5a2260U, 0xbcba1b80bdab4b66U,
  0xbdcdc2c6bd945bf5U, 0xbe1a6d87bdbd731dU, 0x3d5898f7bdb350a9U, 0x3c2235233bde4ab9U,
  0x3d02782abcd2330aU, 0xbebc4ca83cc6b68eU, 0xbc8d4f7cbd93a55dU, 0xbd9845ed3d94529cU,
  0x3d86bbfa3dc667c6U, 0x3d8d11d43cf1d680U, 0xbd9c6bfbbd33ae44U, 0xbd9de0d0bbd72f60U,
  0x3b3e0cc0bd6c563bU, 0xbcee39203bd7fb00U, 0x3da0866e3d03f38cU, 0xbd0a1b12bd9b7c6eU,
  0xbd1923283d537fe8U, 0xbd9666243d43a040U, 0x3cd8e358bc857e28U, 0xbd349a7cbdbbb8dcU,
  0xb9594200bce7240cU, 0x3c19fec8bdcab1d3U, 0xbcc39544bd97fe16U, 0x3d0717383dc5307eU,
  0xbd8a52e8be1eed92U, 0x3e06899a3d42aabdU, 0xbd26fa35bd1e6b32U, 0x3c1170d03d074384U,
  0xbd386800bdda6879U, 0x3d56467c3c5cda78U, 0xbd510007bc7b33c0U, 0x3dd43644bd53b4a4U,
  0xbd14bc52bdadbd3fU, 0x3dd42b3a3db72c36U, 0xbd337ce0bcce487cU, 0x3d0865b83bb43760U,
  0x3dc30cc4bd04ed5eU, 0xbda3014c3c2e55d8U, 0x3daeecfa3dbf068eU, 0xbd4bfd7cbd64d51aU,
  0xbd81738e3d03bf3aU, 0xbe26d052bdba3697U, 0x3d38e6cebcdb1effU, 0x3c1540f4bda394d1U,
  0xbd55b193bda0947bU, 0xbe7f71563d202bd1U, 0xbd1015d03a586afbU, 0xbdd79e5bbdce0579U,
  0xbc95c1283a39bb00U, 0x3cae0ad5bd9fc8d9U, 0x3d00d4223ca69f1cU, 0xbdb03fe3bdb9fc66U,
  0xbdcdd83d3dbce364U, 0x3d8932c23d63f158U, 0x3cc802e8bd9582e4U, 0xbb583a60bdc84ea8U,
  0xbd8b382c3d9728ccU, 0x3d01a2c63c82a5bfU, 0xbd7ac733be87fb29U, 0x3d86fc703cd63630U,
  0xbd823acabd96d452U, 0xbdf09c1abd25a37aU, 0x3d0f2f09bd8ee927U, 0xbbc9712b3e506338U,
  0xbe05565ebd18a3aaU, 0xbd12f8853d021947U, 0x3c0c4f033d15c140U, 0x3c99503bbe0413bbU,
  0x3cf9906c3e131985U, 0x3d7224603d3d185cU, 0xbdb62526bd5d8752U, 0x3d345c143d671dd4U,
  0xbc6b0fadbd2ca321U, 0x3d79e2203d20b449U, 0xbd1b43b4ba103380U, 0x3c957538bddb0aacU,
  0x3c087b403d6b8c44U, 0xbd8dc54e3bd928d0U, 0xbdb5dcb43da15944U, 0x3ba0f6783db9d872U,
  0x3e4297d2bcd60491U, 0xbcc3ec62bc0b49c4U, 0x3d0afe0abe06384eU, 0x3b962e593c515288U,
  0x3dbe7fecbd0291a8U, 0x3d16f618bda862dcU, 0xbcf2264b3c1f0678U, 0xba5b72e2bc5d3cdcU,
  0x3d5d29503c55567bU, 0x3d1feba73da45d5dU, 0xbe81bb8abaffcfc8U, 0x3d318ddcbdb4eed5U,
  0xbda9560fbcf0fbc4U, 0xbdc79dac3d4e38b8U, 0x3b531a84bd59aeddU, 0x3cce7e36bafbce3cU,
  0xbd4a09a23dcbfbbaU, 0xbd9ca75a3c406120U, 0x3dac169a3db0f390U, 0xbd21d176bdd6a926U,
  0x3e3424143cd0c935U, 0xbdccf4d33c8847eaU, 0xbce86d28bd43d154U, 0xbdbdc2f8bdce88cbU,
  0x3cfb5f40bdbc8daaU, 0xbcc9db80bdba7b66U, 0xbdb29af43c8c82ccU, 0xbd4b3762bd3abf30U,
  0xbd98c7ba3d47ffc4U, 0x3c02d6b8bdb1120eU, 0xbd853d70bd04aaaeU, 0xbdeed43abc847f0cU,
  0x3d02f4c9bd79b49bU, 0x3db85b47be2f86c6U, 0xbdc4e03d3dcac81aU, 0xbd28be82bd414ee4U,
  0xbd8ea20ebb216400U, 0xbdb04973bd4cf743U, 0xbd8b620e3dc15efcU, 0xbcd9a7acbdbe57c4U,
  0x3dd32d9ebdbd8163U, 0xbd87cea93da98328U, 0x3acf6500bc80e7c0U, 0x3d656a043dc09d6eU,
  0xbca731283dbd076cU, 0x3dc09954bd5df846U, 0xbd5e523bbd25eaecU, 0x3d572cdabe09d870U,
  0xbd9819a5bd3e9c94U, 0xbd8c731e3dc2395cU, 0xbc6bb560bdb73664U, 0xbdac5e61bd23b00cU,
  0x3ca1f799bd83677dU, 0x3d584c23bcf3c6b8U, 0xbd17ae9c3d8eceb6U, 0xbac847c0bc90c2ccU,
  0xbd81cf5f3b63eaa0U, 0x3c7e764e3d504400U, 0xbe0a4928bd57fc5aU, 0xbd543e663ceeaf76U,
  0xbe5c2c903c96c5edU, 0xbdb74fbcbc559fadU, 0xbdd3b5053cf6e4d0U, 0x3d42c4683d3b5654U,
  0x3d4965983d02e6e0U, 0x3ad76fc0bd764b61U, 0x3db8e4f3bd5b6b10U, 0xbc4291993d24f66dU,
  0xbdafbb7f3bce798eU, 0x3d509104bda633f3U, 0xbdb673273cb873b5U, 0xbd4a9e7dbde80b06U,
  0x3c129280bcbcedecU, 0x3cc5e84b3e047134U, 0xbdb409293ddb3e76U, 0xbd9046abbd498772U,
  0x3da9f1d8bd245a26U, 0xbd6b051fbd6bf074U, 0x3dacf77c3dc39fc6U, 0xbdc2a1d6bdf04412U,
  0xbe3bd95c3d0a34fdU, 0xbbfad0f03d6cf64bU, 0xbd543834bda907baU, 0x3da6a4f83d277ed4U,
  0x3c726058bda8a88cU, 0xbdbb0753bdaaacddU, 0x3cd25600bdc8debaU, 0xbcd9643cbd4e700bU,
  0x3c611460bdbec5e1U, 0xbdb1664dbde8bc84U, 0xbe6a791a3cdcc407U, 0x3d88f84a3e1e4a15U,
  0xbda7c861bddbf730U, 0xbdd581133dc69a0cU, 0x3d09c040be1d538fU, 0x3e1a09b33bdd1dd2U,
  0x3c98f1df3ddf4f59U, 0x3cad9b423cd67d8dU, 0xbe3fd838be15d37aU, 0x3c555ee8bdd1279aU,
  0xbe4373ff3cd9c824U, 0x3c82a848bd9cd254U, 0xbda3d605bd09c1beU, 0x3b4dcfe0bdbc8c09U,
  0xbdfb9e43bd8d43feU, 0xbe47ea6f3d4b0734U, 0xbe06f3343b02ff15U, 0x3d6037b6bd0234faU,
  0xbda3b0cfbe7c2131U, 0x3d9e5c20bdc9c6f3U, 0xbd769c2dbdabd5a8U, 0xbccfd05a3dba0eaaU,
  0x3cb4efd8bce92b8fU, 0xbccfdcf0be5e6aa6U, 0x3d92a15ebd314803U, 0xbc96354cbc9462faU,
  0xbdd292c23d8b0e18U, 0x3d1d4206bd33b2aaU, 0xbd8d1e24bd47e7beU, 0xbd8f7b39bdb1a547U,
  0x3d574f24bcad28c0U, 0xbdb3a8173db9e43aU, 0x3c4cd03fbc07c1bfU, 0x3d38f025bd04e6c0U,
  0x3c345980bc142ed8U, 0x3cdac328bc897e54U, 0x3aa40d09bd13e14eU, 0x3cbfdcdabdf18bb9U,
  0x3d041c09bcd13b42U, 0x3d84d33fbdccef9fU, 0xbe12131e3baa571dU, 0x3dc66a343d522f0bU,
  0xbbfb36163ce8ed78U, 0xbdeb4de5bdb364deU, 0x3dcd77763da9e9f8U, 0x3c97d8d8bd84a766U,
  0x3c37b9103cccad90U, 0x3aa97500bd442b33U, 0x3c85f0043c2e7470U, 0x3dd63376bd77e549U,
  0x3d45a35cbd6a16ccU, 0xbd8aaac3bc53f8a8U, 0x3b914319bd015cc2U, 0x3e21a4a5be2bdc4eU,
  0xbd68e3c63d843dc8U, 0x3d16f264bc819430U, 0xbdd554b53df05c9dU, 0xbc77535c3dc3eb0fU,
  0x3d3e5ed53e907b20U, 0xbcce3670bdd299bfU, 0xbd3c7f64bdb4d3e1U, 0x3db518f63d6e7a8cU,
  0xbc045cb03d83eaacU, 0xbe234e7f3ca77f4bU, 0xbc5742b0bdf6c7cbU, 0xbdbfa0283cf77370U,
  0xbdf15aef3d0cefbcU, 0x3d176c2fbd3596d6U, 0x3d761356be72ec93U, 0xbe0e349fbd76bda1U,
  0x3d3e0fbc3d3293d4U, 0xbe120c1bbae222f6U, 0x3cf75c7abc0da733U, 0xbc28e01c3e0c54c4U,
  0x3c84f298bd08f552U, 0x3b7db120bd2559a0U, 0x3dc573903d8bc22eU, 0xbcdc441e3dbc4bfaU,
  0x3d1aea1ebe16fa75U, 0x3d64009cbdc394f9U, 0xbc9c87dcbbae0600U, 0xbd390acebdb8deccU,
  0xbcfe7e483d9dd6acU, 0xbd7740ecbd598550U, 0xbd0651083dacbd08U, 0xbd7ffcbebd908870U,
  0x3ce4fb7a3dba7874U, 0x3b6ccc93bc487852U, 0xbc39d831bd56e413U, 0xbbd647623d8d343dU,
  0x3d990d043c6007e8U, 0xbd358baabe4783f3U, 0x3cd5b7a4bdeb898aU, 0x3b4557883e8041c6U,
  0xbda7a63a3b582b54U, 0xbddfdbef3cc46e00U, 0x3dd62bf4bcf3ca55U, 0xbc9d84b0bdbd2badU,
  0xbda89ebbbb637480U, 0xbda990763cd251b0U, 0xbd21e618bd314e68U, 0x3d0c2dea3d70d090U,
  0xbb19a4f1bd85e9a9U, 0x3d139ad33e4e77a6U, 0x3d0622e4bd129c3cU, 0x3c607e38bd8ec1beU,
  0xbdd1f621bb10bb40U, 0x3d268f84be071c37U, 0xbd6e1f52be9f3a6bU, 0x3dd0c0c7bb980aeaU,
  0xbbfadf7a3b4bcca4U, 0xbdc2d4a3be292a2dU, 0x3d2f0adfbdf1f032U, 0x3c7bd6e63e171938U,
  0x3c36aac03c3972d8U, 0x3be19a10bda15ba6U, 0xbdbb9839bd869ff2U, 0x3ce249df3d10941eU,
  0x3b223823be8c38f6U, 0x3ddb62983dba42c6U, 0xbc561108bdbc2848U, 0xbdc2d889bdc259bbU,
  0x3cf00fb3bcbcd1bdU, 0x3c2ea637bdb31991U, 0x3cc2f7d03d4cf63cU, 0x3d9093c0bd5ff315U,
  0xbd0b0614bdba40fcU, 0xbd288b34bc6d3028U, 0xbca3e4b83cbc5ae0U, 0xbd12f628bc07d6ffU,
  0x3e2e7c403c1356cfU, 0xbd39595ebd8c662aU, 0x3c12e252bd1d6542U, 0x3c0d47433e6f2f4dU,
  0x3c90c0003d1be924U, 0x3dd5f4c6bdd91b53U, 0x3d4274db3d72024cU, 0xbd0008463db99c96U,
  0xbe0f004f3e7bd4c9U, 0xbcfcca983d6c7a5aU, 0xbdd93614ba2018ccU, 0xbd017c803cb63d8cU,
  0x3cc51692bd37acc3U, 0xbe1a18a63e014fd3U, 0x3d823c5ebdeee4c8U, 0xbe9c65c53d03419eU,
  0xbd264d21bd7fddb2U, 0x3c571bbd3d8efcf2U, 0xbdca7412bdf0ef42U, 0xbbef3cf0bd44e36aU,
  0xbc93d570bd866572U, 0xbddaa89dbc7372b8U, 0xbd2e472a3c633bd8U, 0xbd3788843d41d974U,
  0xbd90e07fbd24c03aU, 0x3e70c07e3d076458U, 0xbdd1f116bdc6c26fU, 0xbd4b79e73d2d3620U,
  0x3dcefea0bd9e387aU, 0xbdec758bbdb260faU, 0xb989a5393d3cd41dU, 0xbdb26322bc2d5183U,
  0x3bfe66b7bb7a8f6eU, 0x3d8a54c73cc24cdaU, 0xbd83c9c93ccbeaa0U, 0x3ca95488bd468b84U,
  0xbdb99ad03c73f3c8U, 0xbabdd300bd7ce642U, 0xbc2ab5583cda6640U, 0xbcc5bc75bdb5b69eU,
  0xbe197c2a3cff06a3U, 0x3d6eacf0bdc35cc5U, 0xbd24256abdc41ed3U, 0xbd78255cbc4f9da8U,
  0xbd9bf7d9bd6f74e4U, 0xbe877d603cd74575U, 0x3d263da83db1a87dU, 0xbdaaaaca3c839b60U,
  0x3c457cf83d6b8734U, 0x3ca87648bcf8ca3cU, 0xbd953dc2bd980ca4U, 0x3db8ad733d8dd1d8U,
  0xbd4217573db920dbU, 0xbd9b178f3cc23382U, 0xbde2fc9fbdaf9959U, 0xbe62f3863d566b38U,
  0x3dac00743b8fb73eU, 0xbdcb1b28bdacd476U, 0xbbe6fd703bf3d820U, 0xbb8436903d922d46U,
  0xbd461ac0bdc50dceU, 0x3d3b956f3dcebfecU, 0xbcea159d3db9fe7bU, 0x3d939dcdbe2852c5U,
  0xbc3fc61e3b02cc8cU, 0xbe4954d03c9c62a9U, 0x3c9b3756bd3e912aU, 0x3b222b053cc213c7U,
  0x3c515cc0be7ee2c3U, 0xbc92862dbdd79980U, 0xbe0e32da3d133ec0U, 0x3c20f898bcc1f8d6U,
  0xbdcbcdf23d44aa30U, 0xbcb84f483d975ee6U, 0x3d23ee3cbdde09f6U, 0xbe6ecbd03c46e900U,
  0x3ca4c9a73d92015bU, 0x3c8783acbd498f2dU, 0x3c5b8e18be239c49U, 0x3c8fb23c3d8c2d7fU,
  0xbea7fee33c0feaf8U, 0xbdd752eebdbf2dfbU, 0xbbff57b0bc5e59f8U, 0xbdc815433d4bbc7cU,
  0xbc9ab6f43d43e7fcU, 0xbb0c1360bd645df6U, 0x38c7e1913c075748U, 0x3c971994bdc7f8cbU,
  0x3d997528be6b3884U, 0x3db34ec43ab03240U, 0x3c8908bcbdb5fcfeU, 0x3d14429d3da4d16aU,
  0xbba7b0d5bc2cb0afU, 0xbcbe8092bd055da7U, 0xbcc70e36bc826772U, 0x3df78f633c361703U,
  0x3d9b692cbd86d3cdU, 0xbd9dd326bcc379a4U, 0xbd6f6098bd8d052cU, 0x3d9d28103d80d3a3U,
  0xbe5853a4bbdaacb0U, 0xbbb5f8d0bdd95eeaU, 0xbdb72a503da9014aU, 0xbd21d328bbe0d300U,
  0xbe1b3f343c495d58U, 0x3db55f2e3cf22b93U, 0xbd83ded4bceee150U, 0xbc991bb83d3ef2e5U,
  0x3e2bb1e93d842380U, 0x3da624ce3dbfa35aU, 0x3d4ddf34bd9f1adeU, 0x3c63cea9bdd8de22U,
  0xbcb3e22a3d18ae9bU, 0x3c950b143e601b98U, 0x3d058b883d80d81eU, 0xbdc0d3b7bdad94fcU,
  0xbd2129b73ce820a0U, 0x3d5c2725be093e3fU, 0xbdd0de7bbdfaa89eU, 0xbde057e4bdd65680U,
  0xbe42561c3d615da7U, 0x3cdef835bd3c373cU, 0xba56272e3c2a03f4U, 0xbd8914e5bddbe274U,
  0x3b852130bd445171U, 0x3bc5a6c0bca01b10U, 0x3cdf5616bdd12797U, 0x3d382196be20d401U,
  0xbe3d38783d116858U, 0xbce75935bc7608e8U, 0x3d3165b2bc111eb5U, 0x3dbbe3213e0a57f3U,
  0xbd04aec63d2a05f0U, 0xbda04488bca4ef63U, 0xbd85d1a1bc8660a3U, 0x3dde9dc83c78b61fU,
  0xbd840a7eba4acbd5U, 0xbda9fb5abd3ddf04U, 0x3d7285bc3d94fedeU, 0xbdc56bd0bd8fb05fU,
  0xbe879c213d5ac7a3U, 0xbdc60bfebdf0db13U, 0xbd690410bccbe5e0U, 0xbc5033a03c558d80U,
  0xbc485d9cbd4981faU, 0x3e77bc203ca3aab6U, 0x3d83ae4bbdbe52e8U, 0xbb2ab8083d2f5fe0U,
  0xbda7a0dbbe4755caU, 0x3d39863c3da3716eU, 0x3cfd0060bd4863b0U, 0xbd914bcd3cc95af8U,
  0xbd55e6113cf57ac8U, 0xbcca8f143d176768U, 0x3d328e6cbdb4a576U, 0x3d95d916bdb94726U,
  0xbdcae7ebbd06ed14U, 0xbdc411ecbd326a16U, 0x3d90cb343da6f68aU, 0xbe0e65f13aa61b74U,
  0x3e0bd74b3cd80f92U, 0xbd622c87bb0e9942U, 0x3cb54ea8bd9be090U, 0x3cc65331bddf67c4U,
  0xbda6baa4bc8170bcU, 0x3d97ff80bbf276c0U, 0x3a850a223d927182U, 0x3d3f42e0be218556U,
  0xbde7784fbd143360U, 0xbd56962dbdb284bcU, 0xbd8cbb30bc3d3ab0U, 0x3db397f8bdd9807eU,
  0xbd44d0ac3c994340U, 0xbdcc4a4a3d551d58U, 0x3ac01540bd465044U, 0x3cce6878bdb89ce2U,
  0xbdfa38bbbc955cf8U, 0x3d20c9c6bd3f0525U, 0xbd4365a7bd19aaaeU, 0x3d41a9f5bd878eb9U,
  0xbdcb5b8f3c927c91U, 0xbd247a90bdc936b1U, 0x3c98ee13bd459fb8U, 0xbc2e854ebc93066fU,
  0xbc3a8c383cf97240U, 0x3d397224bd5119e2U, 0x3de2304c3dae8b22U, 0xbca80bc53a90c00eU,
  0x3da72aebbe070638U, 0x3d37b8ac3d166db8U, 0x3d1e02c8bddc0672U, 0x3d81835e3d257398U,
  0xbd8b3b2ebd73b9e3U, 0x3cd0a2d83d94d97aU, 0xbbc6090fbdebbbcdU, 0xbb0a56ae3cde44beU,
  0x3d6320c83bb42b03U, 0xbd6fc52f3cdc3ad0U, 0x3be060d0bdd83d59U, 0x3d46ca963d2ad1e0U,
  0xbe37012cbc4b3303U, 0xbdbb9f883c6703b1U, 0x3d4057debd40bee2U, 0xbb5f39c2be8a7e40U,
  0xbddf3073be1101c3U, 0xbdff9e523d149e46U, 0xbdf007183e0ec64eU, 0x3d3c9b81bdb8d1beU,
  0x3bfff1a63b542c69U, 0x3da40da4bd89b789U, 0xbe082294bc355dfeU, 0xbd6e9bff3dae5f2cU,
  0x3d5e7fd5bdf42bfbU, 0xbcc5941dbe96f2c5U, 0x3d1323c23d794d63U, 0xbda68cccbc4e2e39U,
  0xbdbea431bd25203dU, 0x3d32d434bd87c835U, 0x3bacd771be60ac77U, 0x3d93c7633d812ca4U,
  0x3d9a2e18bcc20a55U, 0xbd9162e83c43f472U, 0xbdaa9008bdc332ceU, 0xbc788f00bc167dd8U,
  0x3d312bd43d97738eU, 0x3db2a7aebdb38ffbU, 0x3c55a070bd93be80U, 0xbd78661a3af46f80U,
  0x3d2ba1ccbdb7f1b7U, 0xbd4bf4eebd5b8e43U, 0x3d0c3868bd209a5eU, 0x3c9b1b72bdaa29b8U,
  0xbcd42b703d13e443U, 0x3d0fe0ef3e934d11U, 0xbd5e457d3c20547aU, 0x3b85f6733cb5aa38U,
  0x3d3f2ccdbdd2f0abU, 0x3cde14d0bdc9ff90U, 0xbdb923acbe46485dU, 0x3d48cdd2bcc38d76U,
  0xbe501d3c3cd33a34U, 0xbbebdddfbe172fd5U, 0x3bd598663ca21e50U, 0xbde751f63d8fc09bU,
  0x3da1511e3a9e1012U, 0x3d1de75dbc23ed22U, 0xbd992fcabb5de071U, 0xbd8f4dcabd3d7952U,
  0xbd900ef2bd4d95deU, 0xbd1cfe54bd1e0e6cU, 0xbd77594bbaa81800U, 0x3c812f83bd91eeccU,
  0xbbeae99b3b2ccd6dU, 0x3b9784ab3e1a245eU, 0x3dbc1038bcd7bbe8U, 0x3b26cc20bd842532U,
  0xbd5ca86e3dc29d4eU, 0xbd268760bdda076cU, 0x3dc71962bd7d5ae7U, 0x3c933be8bd53cc88U,
  0xbce6a144bdc906dcU, 0x3d8c59c6bdb8e1c3U, 0xbdc3e61e3be59150U, 0x3c66dea03c2cff28U,
  0xbb87eef2bcfe015eU, 0x3d6157d03aed1559U, 0xbd8dc9c73cf2766eU, 0x3d52e2c1be1a1d83U,
  0xbc1af651bd0d424eU, 0xbded187abe1ac325U, 0xbd8512cd3d853064U, 0xbda57691bcdc3fb9U,
  0xbda05d323dc9138eU, 0x3dc335cebc8ec568U, 0xbe0b14c9bda8c99fU, 0xbe2114373d81ea26U,
  0xbcb6aa10be0617b9U, 0xbdb3a38fbbb83bc0U, 0xbca73334bd28c42aU, 0x3d6982bfbe1bd295U,
  0x3d9d13303c9a0c33U, 0x3c9b96f4bb4b8243U, 0x3c71c5473a2e3854U, 0xbe19db803db362f6U,
  0xbd9222d03c8ec780U, 0x3d9e5cdebceb7e58U, 0x3d4450743cad1f78U, 0xbdd9ff853d3a4308U,
  0xbc849e58bdb39953U, 0x3cb8bb443a7c6bdeU, 0xbea25cdc3ca9d3d7U, 0xbb6534ccbdaa53f0U,
  0x3ce85622bd3e029dU, 0xbdad6d60bdafcd84U, 0x3c0320803db4e7d2U, 0x3dc60ecebd92ca9eU,
  0x3c922f06bd6e5dceU, 0x3d44f313be1731eaU, 0xbd4f164abeaaa462U, 0x3dbf50ae3d963084U,
  0xbcca48e2bd0244d2U, 0xbe07e8b4bda46cf0U, 0x3d4ea3dbbdb4a39cU, 0xbc40f3ef3beb0ae1U,
  0x3da2de06bd0c85dfU, 0xbd13d5b03c6252c9U, 0x3aa38e40be2de83eU, 0xbd794794bd97bf3dU,
  0x3c7f8ef0bdd22048U, 0x3d813a64bdc2a836U, 0xbd9c67febda906b0U, 0x3d541a593d931c4cU,
  0x3c948827bdb0f7dcU, 0xbd845537bdfd98ffU, 0xbdc53118bd38d6e8U, 0xbd6f7a4a3d1075b3U,
  0xbddc58cabdaa71c2U, 0xbd664310bdc69319U, 0xbd95973a3db1dcecU, 0x3cfc39f03af81cc0U,
  0xbdd37d45bd9dd771U, 0xbe1449afbc1f8228U, 0x3ce27d82bd32ade8U, 0x3d8a0405bda46b48U,
  0xbd43f0a63d9ce678U, 0x3d3deb1cbd1d4dacU, 0x3d466d60bdd8e3e2U, 0xbda90f3d3c8399a4U,
  0xbda8d4eebd09f39eU, 0x3b7bd1a7bd729ef7U, 0xbe2e54503cb422a4U, 0x3d3d9d9b3ac66d66U,
  0xbb0133fcbd56b3a1U, 0x3d249c4cbc0a55deU, 0x3db580cf3d5c6ad3U, 0x3e5d9905bd0a20d3U,
  0xbdb44f06bdf2a6bbU, 0x3ba5fedc3caf8dfcU, 0x3db97c6cbdaf9067U, 0xbb45ff7abdcc78afU,
  0x3dc34ef33c92d930U, 0x3cf890583c93f143U, 0xbdb7f3d43dc8643aU, 0x3d6bb160bd23a8c0U,
  0x3d0ab3143d0ed940U, 0x3d2d0e88bd11c21eU, 0x3c9cea6dbc2664e8U, 0x38d6280c3ade727cU,
  0x3d02d93fbdef7cc4U, 0xbca4cde13d0289a7U, 0x3e17bddaba382592U, 0x3e000d76bd045205U,
  0x3c346751bd83a273U, 0xbde8082abe131357U, 0xbc7422883d13cbe0U, 0xbba37c10bd9b5995U,
  0xbd8c0eb03d8a7e6aU, 0x3c894d0d3d7aaf7cU, 0xbe04ec1c3d39b427U, 0xbd9c872ebba69ba0U,
  0xbbf17f00bd3b713cU, 0xbd819dec3dac69e0U, 0xbd7309c7bbbb8e90U, 0xbdbd9b1c3d894eeeU,
  0xbd9939d53d08966fU, 0xbbb54ce83b94e76eU, 0x3c21b8bcbd0190abU, 0xbc02b1ea3c7930eeU,
  0x3d3d21e03c71ddbbU, 0xbb19d02d3c8ae40bU, 0xbe5b2edc3cba10f9U, 0xbd7a6920bdebcd4aU,
  0x3d2de5bcbdacade0U, 0xbbc4ae74be8a0845U, 0x3d9c47cdbd7babd8U, 0x3d71fe9ebc7b68dcU,
  0xbdf537713d4f50daU, 0x3d3303f3bb345479U, 0xbd9994fbbe634398U, 0x3ae54108bdc662e4U,
  0xbe841cbd3d0d7835U, 0x3c33bb96bda1ae6aU, 0x3c83b011bce00e30U, 0xbd45da3bbe00b138U,
  0x3d2403683c710fe8U, 0xbdaa4663bda0baa2U, 0xbd9fb95ebd136a22U, 0xbdaa83d53d64486cU,
  0xbd9a02243dabbceeU, 0xbda77b493d80c266U, 0x3d490b80bcc87030U, 0x3d20737c3a98d8c0U,
  0xbd9b8eb1bdc9ffe2U, 0xbda595973d9e44b8U, 0x3d9c10d83da6dc8cU, 0xbd09128cbd77c5e2U,
  0xbca84ebbbdccbe19U, 0x3c094a953da930b1U, 0xbe43d0ad3dc4d264U, 0x3bef14b0bd8d6abcU,
  0x3da3b009bc86e75eU, 0xbd5c3e8a3e57792fU, 0xbc8f7ce13db5e5a1U, 0x3bc055c93e7319f3U,
  0xbcc4c11fbd2011a6U, 0xbdd7c55d3cc2d7baU, 0x3d47c438be1efac5U, 0xbdd29fed3d028b68U,
  0x3c2a6d40bd9c1e0aU, 0x3c60480ebd893d44U, 0x3e0ef0cebb6e69d5U, 0x3d0c29b13d9d959cU,
  0xbcbf312a3d1f7a7dU, 0x3b3344ae3e46b307U, 0xbe143a7ebc15241fU, 0x3e1e9ddc3cfb4675U,
  0xbcea0248bcc293b1U, 0xbd597300bdc5bf92U, 0xbdcfb28bbdb500c6U, 0x3da3508e3d543d6cU,
  0x3c2e65c8bd51123cU, 0xbdb629913d2b2750U, 0x3bb14bce3d3203e6U, 0xbce7dc50bda90684U,
  0x3cce86f83d274408U, 0xbd061c38bdb03d2bU, 0xbcb6ae343d86f8d6U, 0xbdb2518c3d5e3960U,
  0x3b45d7003da53d06U, 0xbd4433763d5da4bdU, 0xbdd1fc9f3c29447dU, 0x3bb8b61bbddfa5b3U,
  0x3ba29eba3d3ae605U, 0xbd491023be617189U, 0xbd32ffb8bdc14dccU, 0xbc73d398bd5b080fU,
  0x3d30e394bc6b3020U, 0x3c6e707f3c7a5b92U, 0xbe153fb7be191759U, 0x3d7958b4bdd3129eU,
  0x3d0fe198bd74b766U, 0x3cb7336839af5e00U, 0xbcb0a2d8bd823596U, 0xbdc86b2abcbfd128U,
  0xbb9d6d8bbc86c4eeU, 0xbe0641ef3c470c19U, 0x3d8d4db43c388ffaU, 0xbba3ee40bd7cd750U,
  0xbce6ab30bbc4c640U, 0xbcf1205c3ce4bebfU, 0x3e9a1fd43b270fcfU, 0xbda2b015bd8597d6U,
  0xbaa36bc03c879314U, 0xbcf025b4bd8e1338U, 0xbd7e12f4bd752cbbU, 0x3d267ed73ceabb1bU,
  0xbd9b202bbd07c826U, 0x3d1a9732bd389cf3U, 0xbe22335c3d5b415dU, 0x3dbd80d4bb1d5c5cU,
  0x3c93d245bcd2d406U, 0xbd3365b63b9c3e8bU, 0xbda07e97bdcb08ceU, 0xbd84f1793d191588U,
  0xbce88efcbdb8898cU, 0x3d529e98bc957dfcU, 0x3bc45600bd972384U, 0xbd887e9c3da52ef8U,
  0x3cb281803dcd8044U, 0xbdb29426bdf591d7U, 0xbe9583063d8b9c28U, 0x3b83ffffbdcb0569U,
  0xbb9251443ca6dcc1U, 0xbd38dfaa3d7a8fb3U, 0xbd4de0413d445afcU, 0xbd3ea54abd84f3d1U,
  0x3c83a1d0bdc55be5U, 0x3d01639cbdcccc22U, 0xbdd34b7dbd5bdb26U, 0xbd541ab03d6e5b44U,
  0x3d2faa20bcba2a78U, 0xbc00e7b83c9e3ed8U, 0x3bc98eb73c503932U, 0xbdc0ab313dcd7079U,
  0xbdcacb06be080acfU, 0xbe5efda33d7c0274U, 0x3dadde28bc01c437U, 0xbd9f91e2bd7f1359U,
  0x3da2590abd86d856U, 0xbdeb837cbdc2fa3cU, 0x3e06f55c3d32cf96U, 0xbdcc48e5bc3dc30cU,
  0x3d3c0ef8bdb6d479U, 0xbdd935bdbda7edb7U, 0x3d5ef2f6be023653U, 0xbe7f08463d1579f4U,
  0x3c8fd37fbda0a286U, 0xbbb5fd133d9988e6U, 0xbde363153da8e129U, 0xbdad7d11bdfe85d0U,
  0xbdd4a79d3d5ca4c4U, 0x3da410c6bce659c5U, 0xbd8ea1403da94990U, 0x3ddc7ffebce886a4U,
  0xbd0f45bebc86d0baU, 0xbe853a7b3cc8f85fU, 0x3d06a030bcd1fa84U, 0xbdd70a1f3d0968d0U,
  0xbcec1f04ba0fa280U, 0xbd9b0f3e3cd8d817U, 0xbea24e293cec8ba5U, 0x3c842f11bd09db25U,
  0x3c82f125bd12eda8U, 0xbe2d8f9a3d982506U, 0xbda4ff4fbb8b27e0U, 0x3c0dafa0bc793e08U,
  0xbdb984973d4babf0U, 0x3c345fa13cf81379U, 0x3d70d491be454c63U, 0xbd9e634a3d27c808U,
  0x3db1ab98bd7a3770U, 0x3be63fa4bd8186bcU, 0x3d038e09bdf95ba5U, 0xbdcaf4a6bc631ceaU,
  0xbd2bab4ebc9920d0U, 0x3d4ea138bd090feeU, 0xbc842a383da80ff0U, 0xbd67d43ebb8b1550U,
  0xbda25c5a3dc28c22U, 0x3c2ef5103ccf4190U, 0x3dc67628bcf61bbcU, 0xbd36e8ec3d2a0d98U,
  0xbda15c293c91c9a8U, 0x3dd8d9c6bc44e228U, 0x3d1ac419bd8fb3b0U, 0xbd1017e53a87a382U,
  0x3dd32eb73d86d369U, 0xbd18b92b3d7dbb0eU, 0xbdcf4d01bd9250d8U, 0xbdc9a820bd260284U,
  0x3d0b4bc8bd7a009aU, 0xbcbdc934bddba4c0U, 0xbce8535c3dcb3da2U, 0xbc38dea0bd402566U,
  0x3d78e9c8bd28d872U, 0x3d6c8288bd98e4a0U, 0xbe139fbd3b0453e0U, 0x3d4e3584bdfaeff1U,
  0xbe0a8eeabe2dcc5fU, 0xbc91e068bd3deb58U, 0xbcb0b09a3cb8ff3cU, 0xbe2c00cdbce00076U,
  0x3d07caecbc7ce8c9U, 0x3c22bdd2bde725f9U, 0xbda29899bc88611cU, 0x3da1dc1abdbc9f6dU,
  0x3ce571a0bdaefed4U, 0xbd79c9fc3d8870a2U, 0xbcfe5054bd469353U, 0xbd995952bdaf5d18U,
  0xbcf06d84bd93bb28U, 0xbd97b5cc3c5f2ae0U, 0x3c9035b8bdc3ea2cU, 0xbdb22ecbbdc5ed28U,
  0xbd0e3f473d3b133cU, 0xbd02bf913cd2cfe2U, 0x3db4e57ebe37b7d5U, 0xbc15ecf0bdc7d7d8U,
  0xbd87d1843dcae7a2U, 0xbdec9688bcf2fb6bU, 0x3c0e31663d123a7aU, 0xbce64050bd36e402U,
  0xbd5fe38bbce05180U, 0x3ca890f0bdcae3c5U, 0xbd9144fbbdb82ed6U, 0xbe5314db3d1ae9eeU,
  0x3c79a730be15741bU, 0xbdb66a503d950578U, 0x3b6522203c8b9e4cU, 0x3d149750bd1e6f1cU,
  0xbd31d66abc8b3760U, 0xbd12f8ce3d9b2cdcU, 0xbc8bd1d83dc104b0U, 0xbb5842e0bd82253eU,
  0xbc69e86f3daf084fU, 0x3df8071bbbc11b33U, 0xbd939ffcbd96c96dU, 0x3b0f28c0bc111ff8U,
  0x3d99b6e23d102ff8U, 0x3d21077d3d939c22U, 0xbe691eb538b6ab8cU, 0x3d0cfb64bdce5774U,
  0xbd82dc64bdd17bf5U, 0xbd231422bd338372U, 0xbd949e193bdefb04U, 0x3e0751d7bbf99c37U,
  0xbd0a4c473e0f8738U, 0x3ca99051bcabdb1aU, 0xbe0ba5863db9ce99U, 0xbd7f1a193d376590U,
  0xbe5ab8b03d12ba43U, 0xbd9dcf22be1b8027U, 0xbd9888aa3cfccbe0U, 0xbc3cfbf83d60293cU,
  0xbda58492bd831180U, 0xbdd5d718bd701807U, 0x3d8e1936bda8bce2U, 0xbdd35924bc02eef0U,
  0x3c3ae9c03db8553eU, 0xbdcdb02bbdef8b51U, 0x3d5987253d37036aU, 0xbcb934b93ccb4988U,
  0xbcccc2ed3d9bf713U, 0x3cd041dd3e7c14bbU, 0xbc84c40cbc9e5740U, 0xbdb30d89bdbbf960U,
  0x3c6f1cbbbd59bd3aU, 0xbc7b94783dc30fb5U, 0x3c9f3808bdb7ffacU, 0xbc9f066c3da4fe84U,
  0xbd74e3e4bdcf7bd4U, 0x3da54438ba852640U, 0xbc0ff410bd3b7fb9U, 0xbdae5d90bdccfaa8U,
  0xbdaa8069bdcd0190U, 0x3dbf02bebdbf7bc0U, 0xbda4ab983d5ccc84U, 0xbd7a18fa3d7dce48U,
  0x3dd240443d7412e4U, 0xbdb3e9abbd14bbacU, 0x3d20609a3cd3d89cU, 0xbc82f723bb8b7b3dU,
  0x3b083957bdeb7413U, 0x3e376be43dad18b0U, 0x3c671246bd8c9e70U, 0x3d5d47463ce3fdd8U,
  0x3d781570be01561eU, 0xbd4e2174bdb4ae6aU, 0x3d7913243d81aa94U, 0xbc705988bcf72710U,
  0xbdc2f296bc981cc4U, 0x3c314b40bb8ee1e0U, 0x3c275c02bd518980U, 0x3cba1f9fbd8e769dU,
  0x3d8417683d74e644U, 0x3d8351c0bd7129e0U, 0x3d9ed5c0bd033370U, 0x3c0b2cbdbd8476baU,
  0x3cbfc9cdbe5c2687U, 0x3d4d352cbd42541fU, 0xbe46381f3cec7ddcU, 0x3c0295cfbe115845U,
  0x3c676ef6bd2c00beU, 0xbdb966d63c196ad6U, 0xbdd7abc1bd911a3fU, 0xbd3b7a42bd6dd76aU,
  0xbd489b453b35a3e0U, 0x3bf0f9a5bcf49382U, 0x3c7bd8153e6742fdU, 0xbd96055dbd901858U,
  0xbd9c6dab3d0e0f95U, 0xbdc1d0003b78d13cU, 0xbd0365743d4fde84U, 0xbb9dcfe0bd49cab2U,
  0xbccb903c3d007a0bU, 0xbea096163c7d5527U, 0x3db83b1cbc359b0eU, 0x3c4dd6e8bd8a6897U,
  0xbd01e970bea2dfedU, 0x3cbae42bbdd1e979U, 0x3d242a213a8da0e2U, 0x3d1fbf843dead1acU,
  0xbd27229c3d2c9de8U, 0xbccf7adc3db528e0U, 0xbbb9d770bd67fa6fU, 0x3d1b4530bd18f620U,
  0x3d2daaf4bc6bf690U, 0xbdbe65d03d19f740U, 0x3cafeef03cc231a8U, 0xbc1d7b6ebd61638fU,
  0x3e8c80683ad8e61eU, 0x3cbcd2ae3c9f6b35U, 0x3d2be802bde59eccU, 0xbdd781dfbe5fed81U,
  0x3d8526be3d177d84U, 0x3d92c560bda3b5adU, 0xbda7940c3d20530cU, 0xbd4cb6d03dcb213aU,
  0x3b142000bd2e7e5aU, 0x3d51c7753c33c937U, 0xbd874ab73a80137dU, 0xbc80f48fbdb56987U,
  0x3bd1afc83ca04d1dU, 0xbda2dddb3e367ae9U, 0xbd9192e7bd823d5cU, 0x3dbd6ea2bdb56d4cU,
  0xbd4c07a8bd997124U, 0x3a411f0f3d317444U, 0xbcbcbe04bd16f15fU, 0xbda78c9e3dc771a6U,
  0xbd8f413abda45096U, 0xbd74a98bbdac502fU, 0x3d08555abce71cd5U, 0xbe1823d7bbbe4cf3U,
  0xbcc4d7ec3d7e7c74U, 0x3cb6b510bdcefec5U, 0x3c4fda483dbfe992U, 0xbb5921ab3cdc9fa6U,
  0x3cdaf78fbddc1450U, 0xbde758773d5efa5bU, 0xbea7670c3cfc3c6fU, 0xbe16033fbcf0ca46U,
  0x3d6967e0be357ffdU, 0xbdf52c29bdbb243dU, 0x3a847670bdcb386fU, 0x3e0269ed3c8f8f1eU,
  0xbd6a8348bada0ba9U, 0xbd9754133dbb995aU, 0xbdb623db3dbf2402U, 0x3d9949c4bd3fdfc0U,
  0x3d302924bd92e05cU, 0x3dc27393bc6d6810U, 0x3b71852ebd7c2afbU, 0xbcc37049be1f128cU,
  0xbd83d525U, 0x0U, 0xbd44661b00000000U, 0x0U,
  0xbd7db83800000000U, 0xbd5539f43bf44838U, 0xbcfdbcebU, 0xbc19570600000000U,
  0xbd5607ca00000000U, 0xbd1ac6f7U, 0x0U, 0xbd153b3100000000U,
  0xbd86ec31U, 0xbc9756faU, 0xbd27facabd2e1193U, 0xbcd5a9b800000000U,
  0xbc934750baa4f290U, 0x3ce6316400000000U, 0x0U, 0xbcd0bcf6bc80e92eU,
  0xbd734619U, 0x0U, 0xbd3ac2cd00000000U, 0xbc6bd702U,
  0xbcdd32d1bd292e7fU, 0xbd1a1ac100000000U, 0xbcbd594bU, 0xbd6d5d2eU,
  0xbd331f17U, 0xbc7f088000000000U, 0xbbf9e57aU, 0xbc9454d7bc123134U,
  0x0U, 0xbcfe7c05bd2b2620U, 0xba9fda4e00000000U, 0xbd309135bd474c23U,
  0xbd855e0eU, 0x0U, 0x3c7ef857bd8403e4U, 0xbd0d8a83U,
  0xbcb26706bd37f51aU, 0xbc2268a5bd61ed22U, 0xbc80e81a00000000U, 0x0U,
  0xbc9f59a4U, 0xbcf30538U, 0x0U, 0xbcaac0aeU,
  0xbd5d7ea3U, 0xbd002636bc98f585U, 0xbcd8da5dU, 0xbd42c4b400000000U,
  0xbcde4d50U, 0x0U, 0x0U, 0x0U,
  0xbd6129bfbd63ec20U, 0x0U, 0x0U, 0xbd36cfb5bc0c7f8fU,
  0xbcf56e67U, 0xbd8191a8U, 0xbcc26a3100000000U, 0xbd8945a000000000U,
  0xbd238958bd4a7115U, 0xbcf0fd6800000000U, 0x0U, 0xbd1b2143bc7e80b6U,
  0xbd85a80a00000000U, 0xbcf71f8fU, 0xbda53098U, 0xbd434878U,
  0x0U, 0xbcafcfc900000000U, 0x0U, 0x0U,
  0xbd802a0000000000U, 0xbd6c1d5800000000U, 0xbd52e66a00000000U, 0xbd78d5eaU,
  0x3c81af1d00000000U, 0xbd4294b2bd201005U, 0x0U, 0xbcfec356U,
  0x0U, 0xbc19810cU, 0xbd92552ebd1ef76dU, 0xbd5f2830U,
  0xbcb9a270bd007dc4U, 0x3c44487500000000U, 0xbd96897bbc98c531U, 0xbd5e3b3500000000U,
  0xbd0238ff00000000U, 0xbc5f165bbd12fa77U, 0x0U, 0xbc9cf76b00000000U,
  0xbb9f5470bbe16dd0U, 0x3b172c0800000000U, 0xbba8cb28bd00ca53U, 0xbd059811bd55d945U,
  0xbc50152c00000000U, 0x0U, 0xbd92ce3600000000U, 0xbd08b8683c8c7bf3U,
  0xbd935d1fU, 0xbd7057bf00000000U, 0xbd5637d500000000U, 0xbd13e3923c3afd01U,
  0xbd1c163100000000U, 0xbba46dd900000000U, 0x0U, 0xbd210956bdaeb408U,
  0x3b0a1a0c00000000U, 0xbd8a1656bd07b326U, 0xbc7453aabcd0e3e9U, 0x0U,
  0xbd87b125U, 0xbd89f8ffbd4d13abU, 0x0U, 0xbcbc3ba3U,
  0xbcdd144bU, 0xbaa5cee000000000U, 0xbd3fb78aU, 0xbc4754d700000000U,
  0x3ae697a2bd73ec85U, 0xbd0b600fU, 0xbd03b757bb847abeU, 0xbd092dc7U,
  0xbc0f6ded00000000U, 0xbacc38a100000000U, 0xbd59ed3eU, 0xbc8e33f5U,
  0xbcaed302bd74464eU, 0xbc897b2000000000U, 0xbd2d29e200000000U, 0xbd389cffbbb52971U,
  0xbd9adf5c00000000U, 0xbb6f9075bd18a26aU, 0xbd2b9417U, 0xbd3df05aU,
  0xbcc1b065bd43dcdcU, 0x0U, 0x0U, 0xbd3a2006bd2a411fU,
  0xbd846dcd00000000U, 0x0U, 0xbd77346300000000U, 0xbd097c25bd4f8e52U,
  0x3b89677700000000U, 0x0U, 0xbd881ce0U, 0x3b00aa92bd67eb3dU,
  0xbd1d7547bd15718bU, 0xbd46c033bc8367f4U, 0xbd5e7c6ebd251b2cU, 0xbc2d32d2U,
  0x0U, 0xbd1960de00000000U, 0xbd45ae48bda75ce5U, 0xbd2a667f39e6ff4dU,
  0xbce062edU, 0xbcf9c19700000000U, 0x0U, 0x0U,
  0xbd8fff73bd48f1e0U, 0xbd511c19U, 0xbcf4302eU, 0xbd3c36f5bd386daeU,
  0x0U, 0xbd3eb0a7bd7f3a2eU, 0xbd47d24a00000000U, 0xbda504273c0de9e8U,
  0x3c9bd8ccU, 0xbd3c512800000000U, 0xbd9c6165U, 0xbd33eaa400000000U,
  0x0U, 0xbd8a690abd8875a4U, 0xbc2ac944bbaf9a4cU, 0xbdb8486fU,
  0xbd82638900000000U, 0x3cd26889bcd70098U, 0x3b9980e800000000U, 0x0U,
  0xbc4f24dabd5b2917U, 0xbc3f5f7abd5f29c2U, 0xbd2a1a12bc8f295fU, 0xbd462042bd7a7dc0U,
  0x0U, 0x0U, 0x3bde91df00000000U, 0xbc63ec84bcd02aa7U,
  0xbdb06d2dU, 0xbcee80a4bcd0161eU, 0xbda87cc2U, 0xbd247fac00000000U,
  0x0U, 0x3c99cee7bd1734f4U, 0xbd33529200000000U, 0x0U,
  0xbd7290d8U, 0xbb300f35U, 0xbd845fa8bd95f418U, 0xba111f3eU,
  0x0U, 0xbd8b3ba8bd0d1e51U, 0xbcb04ccd00000000U, 0xbd0aa64900000000U,
  0xbcb33572U, 0xbc200ec6bd13b8fcU, 0x3bcefe72bd2cd178U, 0xbd451c9bU,
  0xbc9a585bU, 0xbca891513c1b05b8U, 0xbbbfdf6200000000U, 0xbd065a4a00000000U,
  0x0U, 0x0U, 0xbadc69f6bd5c39e9U, 0x0U,
  0xbd540dda00000000U, 0xbd89a27abda6656cU, 0x0U, 0x0U,
  0x3c9f369cU, 0xbc5871cdU, 0xbd1e0657U, 0x0U,
  0xba7266d9U, 0xbb780727U, 0xbd156390bd01976eU, 0xbd1c2269U,
  0x0U, 0xbc952b2bbced563fU, 0xbbcea43000000000U, 0x0U,
  0x0U, 0xbcb5430cbd0727e1U, 0xbd76314dU, 0xbd8fc1e100000000U,
  0xbca0415300000000U, 0xbda354093cdc12f5U, 0xbc0c650200000000U, 0xbc397ea3U,
  0x3b3df8e7bd259809U, 0xbd1776ddU, 0x0U, 0xbc987b0cbd19c66cU,
  0x0U, 0xbc986e77bcaa0e8fU, 0xbd5a3a7200000000U, 0xbcb2372800000000U,
  0xbcf8b4b400000000U, 0xbd9c2826bd12191bU, 0xbd69dba1U, 0xbc90571300000000U,
  0xbbc08c70ba8c4f97U, 0xbd3bcd67bd303b96U, 0xbce42f363c416c18U, 0xbdb37b2d3d2f18f8U,
  0x3d956d97bdbf4c76U, 0x3d64445e3cb5b04bU, 0xbccb03e8bd83c5afU, 0x3c527206bd88109fU,
  0xbd32d5c53d429cbcU, 0x3d1444a0bd9d815aU, 0x3dabd40ebd34d2e4U, 0x3d5ced283dc0b262U,
  0x3d20a200bdcc158cU, 0x3d895e50bc2ec78fU, 0x3d5a02adbcd29726U, 0x3d9a92363c9d7928U,
  0xbcecc12cbdc4b0b9U, 0x3d0a1215bd8ffa59U, 0xbd69700a3dbe6652U, 0xbdb55bcdbda1c728U,
  0xbc5fb1c03d9ef7b8U, 0xbd8a35b6b9d88c00U, 0x3db056b03da34264U, 0xbcaa1ddc3d994ad5U,
  0x3b195bbe3b0e9c35U, 0x3d2ceb8d3db455e6U, 0x3d703cf03c8769cfU, 0x3dab303a3d85dd4eU,
  0xbdb947d33db96537U, 0xbada68f0ba403d00U, 0x3c844fe8bdb18056U, 0x3be943a23da8f574U,
  0x3da4a89e3d279e74U, 0xbd094ada3d59c673U, 0xbd8ea7f43d28d42cU, 0xbd99174d3c3b410bU,
  0x3b5cd140bc8f8cfaU, 0xbb46d960bda40828U, 0xbca9ec68ba34960eU, 0xbdbaf186bcc61da3U,
  0xbdc0c7bf3d1712f2U, 0xbd9123b53b0262d8U, 0x3ae9073bbdb90d79U, 0x3d4495983da65544U,
  0xbcbfd08c3c628eadU, 0x3da75c94bda91c75U, 0xbcf639d4bda58ea7U, 0xbd48d9953c17ceb6U,
  0x3aa8edc0bdd1f131U, 0x3d5534183d678e0cU, 0xbd8cc3cabdb7747bU, 0x3d9111e13c99bbf4U,
  0xbda51690bc01d903U, 0x3db0f9983c87ff80U, 0xbd38c026bda2f09dU, 0x3da2d374bcde4068U,
  0x3b7202dcbdb1da0dU, 0xbb8904703d9ef316U, 0xbbe191a0bd78d8c5U, 0xbd289265bd62c296U,
  0x3d49b4c03d3a45bdU, 0xbc05c5b0bd8dd907U, 0xbdcf6b87bc3794e8U, 0xbd4865123d02a350U,
  0xbdbc9da63bacd1ebU, 0xbd7629703d7c3508U, 0xbdafa7fdba265a00U, 0xbcdc052fbdaeeb16U,
  0xbdd3f94b3daf9408U, 0xbd45f4e0bd9c3bd1U, 0x3db6976abcb77c9fU, 0x3d850fa43d81fdb0U,
  0x3c6ce8b03dbb7528U, 0xbd8be0f33d90a216U, 0x3da8e7263dc61b04U, 0xbdad76433c580008U,
  0xbdbd058a3b336000U, 0x3c889338bd7f5c7aU, 0xbdaa89b4bbf83b80U, 0xbd1dcc743c932d28U,
  0xbdcbc2d1bccfee54U, 0x3db16c89bc292df3U, 0xbda622f63d766f94U, 0xbc2a97f83db5b759U,
  0xbdac36ba3d74aa4cU, 0xbdb4edc63c5faa72U, 0xbc54b71dbcea21baU, 0xbcec47f83d82e30fU,
  0x3da1c55e3c199550U, 0x3ccb78edbcb5d16cU, 0x3d34a334bc4ee2eaU, 0x3d8632f63d96343eU,
  0x3d3b201b3d57f6c4U, 0xbdc97b063d5265a5U, 0xbcb71ab8bc760200U, 0x3d811649bd5421fbU,
  0x3ca7aaad3d5a1735U, 0x3d0a1f1c3c3c8ed8U, 0xbdbd6c49bc9164c2U, 0x3da0d9eabdbd7a7eU,
  0xbd4ccf60bd3c7c5dU, 0xbb868470bc190d38U, 0x3ba729a0bd231401U, 0x3ce1b8bfbd9af0a7U,
  0x3d579b18bdada455U, 0xbce242a9bcd88e84U, 0x3c9a0e29bda9717aU, 0xbd8d1b53bca6a1dbU,
  0xbd88ac7e3d329058U, 0xbd9c1dc9bc8e4f9cU, 0x3d42ef4c3d301ba4U, 0x3c8cafb6bd7ce5cbU,
  0x3dc1cc12bd14bb91U, 0xbda82825bced67abU, 0x3d309a2bbd255a06U, 0xbd82bd9f3d6f117cU,
  0x3d2b78b43d83ffa9U, 0xbdaaaf673d3259d7U, 0xbd6c4c9d3c082130U, 0xbd9b8c363d516e8bU,
  0xbcd7a10c3cbe13f6U, 0xbb33ac00bda6f9b5U, 0x3d5b781c3c7b2957U, 0xbd1cdde3bd7096f7U,
  0xbd047e873d05555cU, 0x3d74b82c3cf0809cU, 0x3d47fe68bdbf9c7aU, 0xbd4636a5bdb24adbU,
  0xbdbf4f0cbd204f39U, 0x3d3ef0ecbd9c968eU, 0xbda263463d059ed6U, 0xbd4dc72fbda230cdU,
  0xbd79f5b1bd7b5af9U, 0xbd4c3038bd8f894bU, 0x3caf8b1f3d867a1eU, 0x3cb544e2bd784908U,
  0xbd67cf2e3d9b2da6U, 0xbd50e468bc55d499U, 0xbd1bfeb2bd4248f9U, 0xbc57ef603d270f7dU,
  0xbc3a96603d5ddb7bU, 0x3d45f904bc673ae0U, 0x3d94d8183db22670U, 0xbd6f4ebfbda8d75cU,
  0xbd3cbff43d309fb8U, 0x3c1b8140bd1fb220U, 0x3c2c0ea2bd515366U, 0xbda742fabc4f3201U,
  0xbd2be534bd8cf65aU, 0xbd2f635abd7e28d1U, 0x3d2f40fc3c59e4d5U, 0x3d692c29bc8418feU,
  0x3d9aafc7bd6e5a48U, 0x3d9c6ed33c076353U, 0xbdd250453d9528caU, 0xbd2d6b993cca4049U,
  0x3d04db243d342484U, 0x3d2f31433c14fd40U, 0xbcf3d5043d1bdb3fU, 0xbd6d267cbc925524U,
  0xbcabe6ec3c9fed5bU, 0x3d978d313d94f0d2U, 0xbd42026a3d188610U, 0x3cbd16303dbeaa9eU,
  0x3d76c98bbda4dff2U, 0x3c6cdea0bd9de0baU, 0x3cdeb6f83d7a6b8aU, 0x3be47d99bd612901U,
  0xbd1743a33d3eba94U, 0xbca0717c3cd293c1U, 0x3d13d729bce7ea84U, 0x3b2168d8bc07c79dU,
  0xbd30fba3bdabff0fU, 0xbd43580abcb181b8U, 0xbbdf6a80bcbc043eU, 0xbda6b15b3db64f48U,
  0x3d565f5c3d62df48U, 0xbdceea6f3d427e4fU, 0xbd90a4f23dadec16U, 0xbc3e0a18bd0c574fU,
  0xbd7623f7bd94563dU, 0xbc8e7b15bb0d479fU, 0x3da8a633bd36aaabU, 0x3cf0f5283db07e3aU,
  0x3d9e9007bc542a79U, 0xba93ae6fbd848dccU, 0x3c12d1a8bda85b07U, 0xbdd3dfecbcc4f844U,
  0x3d0d4f543d35c224U, 0xbd0634143d1005e8U, 0xbda500863d074310U, 0xbd695f63bd5aadd7U,
  0xbcc8d7443c2ae1c9U, 0xbd01e2d03c4b7ae2U, 0x3d2ae6a8bcb953f1U, 0xbd5a362fbc6e8d68U,
  0x3c2c7b683d140a08U, 0x3d982efbbd80b150U, 0xbdc3d1b63cbc9798U, 0x3ca6eb80bd62cdc2U,
  0xbdba44dabd8994d6U, 0x3d103664bcf1816cU, 0x3d5686493c8e3974U, 0xbd19be27bc923db4U,
  0xbdc427e53d1d7484U, 0xbc7c3294bd4c4091U, 0xbd04e4aa3c0441e8U, 0x3d894a4dbd4db00bU,
  0xbc84896c3c544eceU, 0xbd8e22d6bb8abcaaU, 0xbcfee79cbd487a93U, 0x3d9fb6d8bbce5d13U,
  0x3d4bcec0bd272372U, 0xbd0744a6bcd54912U, 0xbd3aced43cf444e8U, 0x3bb112353d87802cU,
  0x3da4657c3dc27782U, 0x3cbb58b4bd91599eU, 0xbd054d523d08b10eU, 0x3bec69603d9e78aeU,
  0xbc0b5c413cff8840U, 0xbc8b91bc3c9f9892U, 0xbb9b1db03a95c380U, 0xbd3ca4dcbd6cd241U,
  0x3d62d5b4bd8647b5U, 0xbd0e2c0c3d8afcf9U, 0xbd1ca3b5bc90d463U, 0xbcd4318c3d580a34U,
  0xbd648577bda1abf9U, 0xbd05e7003d75fde2U, 0xbbaf31a8bc4946dcU, 0xbc9f833c3db16b85U,
  0xbc6f0768bdbf0e08U, 0xbd6d3e6ebd12a8c8U, 0xbdc91fc33d84dcfeU, 0xbc17c7d0bd85f308U,
  0x3caa98643d15daf0U, 0xbd869105bc6f260cU, 0xbd6f5402bd79f4fdU, 0xbd4a7860bc922820U,
  0x3d4a5744bc3f6838U, 0xbad0add63d5dba3dU, 0xbdcd6bdb3da09a56U, 0x3d74ecdcbb5b9014U,
  0x3cdedfdfbcc7033aU, 0xbd89c5a6bd1c373dU, 0x3d0e72383d95fb68U, 0xbb26d0983b45ce4bU,
  0xbdbbc5573c0237c0U, 0xbcda4adf3dae7e76U, 0x3d0d56abbbeefe50U, 0xbc8e8182bd5d6a3aU,
  0xbb1af4433c658eb8U, 0x3dcb60b2bcda6b3eU, 0xbd60f6f33da98a68U, 0x3b278bdbbc289888U,
  0xbd8a18603b6626e6U, 0x3d943e98bd600d4aU, 0xbc096860bd19b1d5U, 0x3c59e728bd37d363U,
  0x3d0e13ca3da9ea8aU, 0xbcfca9c3bd9d4e13U, 0xbd0fe620bdca09d8U, 0xbdd5c830bd9e3e92U,
  0xbda318813dabff0aU, 0x3d3714f0bd345e0eU, 0xbd70eec33d449620U, 0xbdaf0aefbd10a652U,
  0x3d9f5330bcb29863U, 0x3d4d60f03d400e84U, 0xbc4874fb3d01fa41U, 0xbd0dc32ebdb700a9U,
  0xbd3fc7da3d42a2f8U, 0x3ce74480bd8fc21eU, 0xbd885b05bda42a0cU, 0x3dae82ba3d74c0e6U,
  0x3d64fb80bdc72470U, 0x3d272cb03d5fd9e4U, 0xbd0c311ebd87194eU, 0x3daad918bcf088a7U,
  0xbc93ea44be0d1f01U, 0x3d549d71bbe330d0U, 0x3daf0d46bd2464dbU, 0x3d6ae63cbcbc60c4U,
  0xbd803314bdff8b29U, 0xbbff19233cbbc258U, 0x3c882ef4bc98c96eU, 0xbd6dcd753dd0944fU,
  0xbd816fd83c93055cU, 0xbd1db02bbd21815eU, 0x3ce444d33d22f370U, 0x3aa20cbd3de11418U,
  0x3db16230bd6f03e9U, 0xbdaf16003da37d78U, 0xbd8830bbbdcbe050U, 0x3d8100343d0990c6U,
  0x3dbb1ab4bc0c685fU, 0xbd447cebbdb92562U, 0x3d69ad3d3d467b64U, 0xbdaf5ec13b86eab0U,
  0xbcd5f738bd227d94U, 0xbd82f1bcbceaf22bU, 0xbcaa301c3ca4ddc8U, 0xbd97ac733d828d09U,
  0x3dacc94cbd743407U, 0xbd28e5f93d900241U, 0x3da31512bd307e68U, 0xbe2154c2b8b81c00U,
  0x3d5329c4bbc26271U, 0xbd3ae9423db6b008U, 0x3d96054e3c678ac0U, 0x3dbf80bc3c4da560U,
  0x3da4a0ebbd8edbe8U, 0xbdb2747a3bd56750U, 0x3d39bed83c026f68U, 0xbe0f85a5bd053d1aU,
  0x3d49f744bdef0783U, 0xbd893a553d0d49ffU, 0xbda9ade5bd5ef7a5U, 0xbdbf891cbdb73679U,
  0xbac15357bc05e12aU, 0xbd6753adba3ff000U, 0xbc777648bc2d6f80U, 0xbd5d690bbc7a2e91U,
  0xbd61d4ac3db9a982U, 0xbda3a9f93aea8911U, 0x3dabb5b2bd926c7aU, 0xbd97c7f9bda2d6caU,
  0xbdc0e22ebc015e48U, 0xbda52cb8bda0a562U, 0x3c76a3683cf1f3f0U, 0xbdaa3df5bd295195U,
  0xbc4d0c29bcdbad84U, 0x3c06f54ebd782a1fU, 0x3da8b914bc2dfee8U, 0x3b262840bd4b897fU,
  0x3d84b0933d80a06eU, 0xbda6e04f3d8bc0deU, 0xbd0b281e3d2a60f4U, 0xbd9f5b08bda1fdd7U,
  0xbda916413d0665ecU, 0xbd533c7cbbf62aaaU, 0xbd1529d7bd795b6dU, 0x3cc86dd03d3333a1U,
  0xbd99fc1cbe79b31fU, 0x3dd3c1e5bd97ba33U, 0xbdcf16b53cc120c6U, 0x3d5671263d2e310cU,
  0x3d2a710c3cee5b18U, 0xbdc05e2a3d6fbcd0U, 0x3cd9e1d83cd14b00U, 0xbda9cac83b108500U,
  0xbd56ee323d07e496U, 0xbb4bb2533cd6fa9cU, 0xbc201a89bbb81ca3U, 0xbe22a9ebbe6f8a80U,
  0xbcb998f3bd45f83dU, 0x3dc04ab63d9b3936U, 0x3db144423dc64516U, 0xbe1f343639f0001eU,
  0x3db2edfc3dac7b8aU, 0xbd049a6f3d3ea8e4U, 0xbd8f82323d33e4c8U, 0xbde13e343c1fd786U,
  0x3aca04f43d1da948U, 0xbd0d94a8bd3644faU, 0xbd0eebc9bd8205b4U, 0xbcedd510bcde8cccU,
  0xbc156aae3cb8e1f0U, 0xbd963c183d77a0b6U, 0x3d14a40f3c761001U, 0x3d8e456ebc2b01c8U,
  0xbb62c1803d26106eU, 0xbca534cebe53f115U, 0x3c759780bd8ad772U, 0x3d9e0cd4bcde58cfU,
  0x3d626bf8bde1e5d8U, 0x3d5e11e0bd50cfe9U, 0xbc0d8bf0be431e26U, 0xbcda69b8bd33dd90U,
  0x3dfb0838bd44021eU, 0x3da61c98bddcc3cbU, 0x3d2e925b3c9c2b22U, 0x3d1e5ae03d37b892U,
  0x3d4de86c3d735260U, 0xbcf21d64bda992b9U, 0xbcb60688bca37dfbU, 0x3c8f98e8bcd1226aU,
  0xbcb63a35bdf8be3dU, 0x3ba1f5533d9b07daU, 0x3d793b1e3d676148U, 0x3dd24009be407d4cU,
  0xbd4911c13d543d54U, 0x3d455cf03cb509f8U, 0xbd881febbdd969c7U, 0xba73fb003ce0b9f5U,
  0xbd9523d03db8c999U, 0x3d4bc58c3c004a68U, 0x3d8c341a3c1f14a0U, 0xbd6f1fb3bd90e5d7U,
  0x3d09682ebd2ccf27U, 0x3cf8a1a0bdb1543bU, 0x3c7ca3673cfce2b8U, 0xbbf605e1bdc3d3e7U,
  0xbbc671cabd80075eU, 0x3d7df42cbd8cf97dU, 0x3d1fde78be066895U, 0xbc3bf1623d851645U,
  0xbe1fe1113cce48deU, 0xbd69b6c93dac7e82U, 0xbe45dcf7bd2db6c8U, 0xbd81a7943ce96054U,
  0x3d77e45cbdbdef7bU, 0x3c2423563d094774U, 0xbd3f53b23d89e4d0U, 0xbd818b5e3d9ce446U,
  0xbd97cb47baa706baU, 0x3d7b42d33dc0da88U, 0x3b86e2603d960022U, 0xbc474d383d77d580U,
  0xbe738655bdb0d167U, 0x399ea900be1096c1U, 0x3d01c4b0bbe0b79cU, 0x39a7b306be473dacU,
  0xbd0b4bcc3d465058U, 0x3a7c86a0bcb6e132U, 0xbca075e63d05b7d8U, 0xbe4634443ce535e2U,
  0xbcb3cd943d51a405U, 0xbd84b453bbbc1050U, 0x3c8e0a30bc9c97a7U, 0x3d0a7448bd9ec53eU,
  0x3dc326603dc09268U, 0x3da0fb993d0aca9bU, 0xbd4bbaa53d18bca1U, 0x3c889c50bdaef818U,
  0xbcdf8c163c80b354U, 0xbd65ce22bb89f8e7U, 0x3b9d9adb3cc55db0U, 0x3c01c4e8bcf9eb20U,
  0x3dadf54dbd8a94a0U, 0xbca29203bbcb8ff2U, 0xbc80bbd03cd36ea5U, 0xbd9cb120bd48423cU,
  0xbd7c59b43c082ec0U, 0xbdaaa1eebd68cc04U, 0xbd5e4e903cc19e34U, 0xbdedd5f13d9dbaf7U,
  0x3d7cc7e83d26bc20U, 0x3d5bd3ffbd2961c5U, 0x3d7dd2b8bd5398a9U, 0xbd9c4f033d25f538U,
  0x3be73e903bb62530U, 0x3d7f28813da46f6fU, 0xbb7a7be7bc52bd98U, 0xbcf90b44bd5913f7U,
  0x3cecc4d03cf2947eU, 0x3d546c2cbd1c5999U, 0x3c9a706e3cac00bbU, 0x3d6ec434bdb13eccU,
  0x3db96432bd9f7e62U, 0xbd8c455ebd09eb55U, 0xbd0723573dbf883cU, 0xbd19d78e3dc23812U,
  0xbd63a1e1bdb19ddbU, 0xbd448b4bbe55cb01U, 0x3d62763a3c8c3d9bU, 0xbd505e87be2f7dd4U,
  0x3d1e58903dc6ab9fU, 0x3d8e270c3db35e50U, 0x3be6cbe5bdaba407U, 0x3ca7f1de3dac8d00U,
  0xbca4bc883d8b55beU, 0xbcbce87cbdaa61b6U, 0xbcea53d03d7f8739U, 0x3dbfe2fc3d9aa01cU,
  0xbcb6ba72bdbde395U, 0x3d284d0e3d938aa7U, 0x3cf647003da5e42cU, 0xbda784213b55b120U,
  0x3cfd5a483d9c02ddU, 0x3bcdf070bda6207eU, 0xbd0ef1dc3d1305b2U, 0xbda7a6773d9f774eU,
  0x3cbc85643d1600cfU, 0x3daccf943d45e3aaU, 0xbd0746fc3d512e43U, 0x3d7691b83d8af6c1U,
  0xbd3df6b53d45c7d4U, 0xbdde1644bce4d649U, 0x3dab3486bd1c4b99U, 0xbda580cbbd23f490U,
  0xbd2641efbc706250U, 0xbd014fe3be51066aU, 0x3dc5481ebd2bb073U, 0xbd601836bd8f0db9U,
  0x3de2a0e1bc911824U, 0xbbea23473d6b6dbdU, 0xbd7f42ad3d941afeU, 0x3dc58b76be1a2979U,
  0x3e3163cb3c279e9aU, 0x3bc98860bc608f45U, 0xbd6400423d205278U, 0x3ba2b3a7be279591U,
  0xbc69d2203d5ce880U, 0x3cf396b53db192c3U, 0x3d51ff17bdafe0c0U, 0xbcd2feed3d99cd0eU,
  0x3caea557bd74bac9U, 0xbd8321ad3d36642aU, 0x3d1b6324be023ee8U, 0x3e1454b8bd1ddec7U,
  0x3d5a8528bd609dbcU, 0xbd81b8803d0dd3f8U, 0xbbf587163d47cd04U, 0x3d8300c43cb99c30U,
  0x3d2a008a3ca66460U, 0x3d376bd4bd3cd1f9U, 0x3bb1e9803ce358fdU, 0x3d16a5533db26a7eU,
  0xbd0b9d53bd97865dU, 0x3b03aaa0bc896e73U, 0xbd425b15bd82038aU, 0xbd6cc9ba3d4907f8U,
  0x3c89c0e03d78b162U, 0x3d2695bcbe130c0fU, 0xbd693f83bd7ffa60U, 0xbdcb1dbcbd4c12a6U,
  0xbcd11692bd34ce2bU, 0xbcd4eeee3bd4a9f0U, 0xbdc004dabd660b0aU, 0x3d4caac6bd2d6313U,
  0xbda02e25bc80c986U, 0xbd276e1dbc506d80U, 0xbda15c9c3c4c4820U, 0xb851d000bd006430U,
  0xbda4564bbbb857c6U, 0x3d8124273c9c62e4U, 0xbd72dc0f3d357fadU, 0x3ce597f8bd60c907U,
  0x39f23e00bd9f2ab0U, 0x3c76ae7dbd25a2cdU, 0xbc192a603d47f3cfU, 0x3d8b21acbc636056U,
  0x3c030eb03d88a298U, 0xbc061889bdc27ddfU, 0xbdcefe583d1eb660U, 0x3db8c25ebd9096e5U,
  0xbb353b40bdd31b0eU, 0x3d9981babd4adaecU, 0x3dba61d8bb83c582U, 0xbd2882863d4ae9feU,
  0xbc23a717be1e3940U, 0xbd858dadbc8949a5U, 0xbc9b3e71bd8efc45U, 0xbd8820393cda78e0U,
  0xbd58020cbd961a81U, 0x3d9d4884bd72fd0fU, 0x3d253540b8687800U, 0xbd989f0bbdcb5425U,
  0x3db65d483d82adfcU, 0xbdd196ac3d90c434U, 0x3db90f4e3ced3627U, 0x3d692aa0bd1ad94bU,
  0x3bbba060bc7e3006U, 0xbd60c1f6bb200d20U, 0xbd999ef03d07ff30U, 0x3ca021743dafa82cU,
  0xbdaa0240bd4deff4U, 0x3d71e240bd8baec6U, 0xbc4dee78bdbdfe99U, 0xbd47e7da3d93552eU,
  0xbd22a7513d54fc9aU, 0x3d8a43dabcf528f8U, 0xbcb60bd13d8bbfa4U, 0x3ca1929bbdbbcf82U,
  0x3cf0b86fbaad05c5U, 0x3d5bae8ebd10f5b8U, 0x3d54fe8cbd15f3f9U, 0x3db14c33bd836d3cU,
  0xbcb1f906bd84674cU, 0xbd2576f13c3c5445U, 0xbd07858e3c885bcbU, 0x3c4ae9e83c219107U,
  0xbd79962ebca89d78U, 0x3cbc1685bdb74745U, 0x3d627130bcb1b774U, 0x3d202108bdc56f01U,
  0x3c74b8e3bd501ef0U, 0xbc3c6d553b2de280U, 0x3d38f981bcb02c10U, 0x3d90f99a3c1f6407U,
  0xbd3aab523d054528U, 0xbd5c4cc03d44e859U, 0xbb1f9a60bd55ccb0U, 0xbd4f1cc2bce72100U,
  0xbd62cfac3d5001acU, 0x3d0eb6d83dad1386U, 0xbbff46e53bbd7aa6U, 0xbb544e60bd97a22eU,
  0x3bdf910fbd0c3dc9U, 0x3db7fb24bb6b7c80U, 0xbda25c26bc5ba8baU, 0x3d9af689baa53200U,
  0xbd3886a1bc7fc3e0U, 0xbdee8251bd9856f9U, 0x3d84092a3d2739bcU, 0x3d4a86f73db836d4U,
  0xbe06dc4bbd4c8c81U, 0xbd534feb3c92a1e0U, 0xbbe44d093c64b6dcU, 0xbcfafd0fbd6224a0U,
  0xbe751830bd8a7eb2U, 0x3dacde9c3d853566U, 0x3d4c574d3d845674U, 0x3c6fe4913ced9ffbU,
  0x3cf76a58bcdb4d25U, 0xbd6d80243cdbe230U, 0x3e7a5ad1bc898a1cU, 0x3d005a8fbd63b77bU,
  0x3d6e48fbbd96bf28U, 0x3c5d51bd3c9d2d40U, 0xbd8e17733d98bc72U, 0x3dccab533d2930aeU,
  0xbd64fc6d3d4862c0U, 0x3d7e6db6bdce3ff8U, 0x3d2611423cffce26U, 0x3c54f1203d8a756aU,
  0xbda93c393d628265U, 0xbd6f6a4d3bfa8667U, 0x3dbdf21cbda8336bU, 0xbacf88003d62f2c4U,
  0xbd4e2258bd57d5c6U, 0x3d51ce6e3d0a6d24U, 0xbd332137bc2c6c4fU, 0xbd9b55093caba4fcU,
  0xbda057353d28e150U, 0xbd7716f83af2d6f0U, 0xbd1e1e1e3d5bd1abU, 0x3db1506cbd315ecbU,
  0xbd8a9f90bdb1b056U, 0x3cb52144bd0ff3f8U, 0xbd35b8b4bda91bf7U, 0xbd9bcb4b3d191dc9U,
  0xbdbe0614bd9e57e4U, 0xbcf65a95bdc47dbeU, 0xbd9b1c7a3d6dded8U, 0x3c80da503dc847f4U,
  0xbd1521e13d76ec6cU, 0x3cf6494dbdd1b1ceU, 0x3dc271e8bd5c9d4bU, 0xbd880886bc6bec5aU,
  0xbce03ee2bd13bf45U, 0x3da6461cbd180433U, 0x3d736fd8bca5937cU, 0x3dab81bc3d978b49U,
  0xbcb88e35bcc6e7e8U, 0x3d83b27ebd7e1007U, 0x3b7afa77bda99d82U, 0x3c29138ebd4e1d65U,
  0xbd736aa2bd7cb4d7U, 0x3c5181f03d8d7cc8U, 0x3db4721a3d3aceabU, 0x3d3bcda4bda398c3U,
  0x3d34071e3da7fb6eU, 0x3d1d3e7dbc3257e8U, 0x3cb0addfbe173384U, 0x3c19b078be823ec2U,
  0x3cd2f6acbceb7bb8U, 0x3b6b3fdcbd556bb8U, 0xbda1b8a1bd6fbed9U, 0xbd3a45b03c7cf748U,
  0x3c93f920be2a5d07U, 0xbe017d3f3daf8652U, 0xbd4f712abc91db00U, 0x3d0857fc3d663480U,
  0xbda18ab8bdb6de23U, 0xbcc37dc4bc17c581U, 0x3d15d8b03da4e2b8U, 0xbdb5149c3c547159U,
  0xbcfeaa843da8e03eU, 0xbd430fdc3c23e1bcU, 0x3d4aeb983d50f74cU, 0x3d820ddbbe3e349bU,
  0x3d1db190bc4bd9c1U, 0x3c7eb9aebda10474U, 0xbdc0dc08bd5d0fc2U, 0x3c75a776bd8b61a7U,
  0x3d68e7b03c4e4660U, 0xbcdde15f3cd35d6aU, 0xbd791a66bd5138b3U, 0xbd06e7d43a25cedaU,
  0xbda6b5a6bd918956U, 0x3d0d9f1bbe251481U, 0x3cd090c3bc9a9ac0U, 0xbc83c3d8bd5fb96aU,
  0x3c3297e8bd568da9U, 0xbd0736ad3d01f96eU, 0x3cc335fa3d19210dU, 0xbcb7383c3dba4ff7U,
  0xbd22bacd3c23c398U, 0xbdbfb51a3ce1bf68U, 0xbd6d9cdebd3f6182U, 0xbe018d11bc7affe6U,
  0xbb243d203d6285cbU, 0xbd71fc793d147620U, 0xbd5e680d3d3e9aecU, 0x3cb8f5b1bc46a018U,
  0x3d5cbadc3bab4d30U, 0x3b749397bd40a5b0U, 0xbd9211f53d802940U, 0x3db530dcbd9cf6f4U,
  0x3ce369b8bd5d7a4dU, 0x3dc5d2b83cb13afeU, 0x3d9c8741bdb9f93bU, 0x3d00a168bcd97621U,
  0xbc707b98bcc163d0U, 0xbd0c471a3d5244cbU, 0x3cb4ea39bbf03040U, 0x3d8532883dc60c80U,
  0xbd9abb533b93e178U, 0x3d22f0c73c22db7bU, 0xbde5c0bebdb5b151U, 0x3d9fda0ebd78e0bdU,
  0x3da3e168bda39ce4U, 0xbd2046cc3dbc4dd1U, 0xbcd63414bd82fe6fU, 0x3cc58422bd9fd7efU,
  0xbce3c1f8bd0b5e30U, 0xbd7db914bd319b85U, 0x3cb1539a3cdd2792U, 0x3d94a998bdc01d15U,
  0x3e1a67ef3c43c0d0U, 0xbd2883723d10c927U, 0xbd47f688bd76b945U, 0xbcdd4ea0bda6aee9U,
  0x3d5aa804bd1bc44aU, 0xbd3dd15b3d54ac8cU, 0x3d5d2f243dea242dU, 0xbc842decbd513b1eU,
  0x3c3babc8be40c004U, 0x3d0c67703d85507cU, 0x3de540ce3d883668U, 0x3d1837c83d839b5dU,
  0xbdaacb4cbd715e5aU, 0xbdde230c3ca71326U, 0xbccd54613c6a5e68U, 0xbd9cde06bca2b234U,
  0x3be0fa00bdba045dU, 0xbe35c4eb3d754c69U, 0xbdb7349bbcd9d317U, 0xbc8203273c190040U,
  0xbd90f0593d8ddc5cU, 0x3d85d7573dbe84d9U, 0x3c1dc38d3d617f28U, 0xbd9cc36e3dc2b597U,
  0xbd0c14a8bd1b9cb6U, 0x3d113124bcc2f19aU, 0x3d52433cb902aa00U, 0xbb78b32fbd5f909fU,
  0xbd976dc53cf84390U, 0x3d272243bd5ea16eU, 0xbcf040213c5a9240U, 0xbd69420c3d9ad730U,
  0xbe1b2ea5bd2b13a0U, 0x3e2abf983d0c3c84U, 0xbcce24803b074a68U, 0xbc8b3af5bc6cd478U,
  0xbdb1ab7cbd3e7051U, 0x3d4d2534bd85a7baU, 0xbd8493d53d5e450cU, 0x3d3f74183d87e9f4U,
  0xbdd86b46bc474a70U, 0x3d6424a83cae0b5bU, 0x3b93e1103d4fadbcU, 0x3c8870143db99f96U,
  0xbcbb3207bdb47416U, 0x3d4688003cb3e9c2U, 0x3d9f38763d5774ecU, 0xbdd58d4b3d712030U,
  0xbd8ad2223cbfe51fU, 0xbd059a323d3493a1U, 0x3d81fc77bd8136f6U, 0x3c7aac1dbd03234aU,
  0xbd25ecb5bd67661fU, 0xbccbf0433bfe7920U, 0xbd3632b43c2571f8U, 0x3d83df5dbd9bef78U,
  0xbd5efa23b91d7deaU, 0xbd8caf6bbb3d6260U, 0xbd79c8143dc4b596U, 0x3d5e38c03d9dd50bU,
  0xbd893a12bd8a70d5U, 0x3d5634dcbcf1a5f4U, 0xbccad028bd5f6478U, 0x3c29dd003d9941c2U,
  0x3d0538983cb07017U, 0xbce2312dbd6968baU, 0x3da43a18bc97d8efU, 0x3d5515cbbc5292f2U,
  0x3dafd8b43c8974dcU, 0x3d3ef4c1bc8e400fU, 0x3cb2c97cbd221e1eU, 0xbd8f6861bb4a7f5bU,
  0xbd7b180dbdc8c23eU, 0x3cda0404bd7d3996U, 0x399b9d4f3c8dc6a0U, 0xbd93ca893d9e4afeU,
  0x3c272d5d3d582153U, 0x3b0f9f923ba71c62U, 0xbc322f313d83ebaaU, 0x3dbf98fc3bcb8b80U,
  0x3d803868bc87ccc9U, 0x3ce3eb44bc4b8de6U, 0xbd93f8713c8c41a8U, 0x3d43a024bd6ace48U,
  0xbd02e1b03c62d024U, 0xbabee8093d2e4a7fU, 0xbd12b0093d9fab4eU, 0x3d01da96bd02d896U,
  0xbdac8404bcebd5c9U, 0x3d2f74e83d477980U, 0xbc713bc83cf22d28U, 0xbd6deaf3bc80e9fcU,
  0xbdd3f8fc3dcbf9f7U, 0xbd1e73d63d5dfdacU, 0xbd5b37f7bc64db50U, 0xbbaa7a84bdae2b79U,
  0x3d1fedfc3d8f59d3U, 0x3d807e783a24d240U, 0x3cf36c073d579fd0U, 0x3beee2bfbd9894e7U,
  0x3cca7caf3da932e3U, 0xbd6898c7bd6a98edU, 0x3bb6a8403da058ccU, 0x3d4b9db4bd822cabU,
  0xbdcb533d3d127200U, 0x3cf776a03d244d01U, 0xbd86de4ebdb03a47U, 0xbcbbeadc3d3c9ea4U,
  0x3d296d9c3d230230U, 0x3b74c4d33c84f9ecU, 0xbcf67aa4bd21cff4U, 0x3d53a90cbd08bc3eU,
  0x3d8bfd893dae7530U, 0x3d377aecbd7257d8U, 0x3cd4422cbdb24092U, 0xbd04159e3cbf93acU,
  0xbce634433d351100U, 0xbd436d53bd91c180U, 0x3d0a6900bd0c1960U, 0x3cda4aa83d6e239dU,
  0x3dbad648bd50e653U, 0xbd84d9fcbc834d20U, 0x3d3d09c6bd4e29b7U, 0xbd6f5bdabd3f01a0U,
  0x3cd0e5c3bcba21f9U, 0x3d7bc96ebce2c700U, 0x3ca107e4bd28e513U, 0xbdb7c423bda9ff2aU,
  0xbd66bd49bd9b3ed3U, 0x3d219e25bc8c8724U, 0x3c5a89a0bdb913e7U, 0xbdb701c53dac02fcU,
  0x3d9f0eca3b6a59a3U, 0xbdca71ed3db53022U, 0x3d1b07b1bd00f6d8U, 0x3b39a184bd6197fbU,
  0x3d0440673dc16368U, 0xbd9b85eebd9e43e0U, 0xbd0e8002bd82051cU, 0x3da24eb93cc925edU,
  0x3da49eb23c78ed09U, 0x3d8d3129bba86220U, 0x3d066378bd99c732U, 0x3dce0e873d1c2604U,
  0xbdfd838d3c7339c0U, 0xbd34318ebce1eb1cU, 0xbc0b84d8bc276da0U, 0x3d8b66c43d90723aU,
  0x3d58f90ebd65692cU, 0x3cae72dbbdde5efdU, 0x3d82e0eebdb4a466U, 0xbdbff884bd8a30d9U,
  0xbc9aa3503dc56e9cU, 0x3da0462e3da30e13U, 0xbcc7f5603c00a6c8U, 0x3c34bc38bd3d137cU,
  0x3b876d903d5050daU, 0xbc0ca4ffbd349feaU, 0x3d5f308cbc52fe90U, 0xbdbb2ec43c230aa8U,
  0x3c0affeb3d2defbbU, 0x3d60c3e03d962066U, 0xbd25fe763d352f1dU, 0xbdc4c8f9bdc3a27aU,
  0x3d42e992bd16d01aU, 0xbc9445463da452ccU, 0xbd1a40a03d018496U, 0x3dc1e2863b5a026cU,
  0x3d13f31d3dc28dffU, 0xbc7c1d41bd3a3144U, 0xbd9328de3ced9d60U, 0xbdde4e423d80d1b2U,
  0xbd8d2df9bd4fd1b9U, 0xbd8e307dbdf3244fU, 0x3d76c5d03d2bb113U, 0x3b2bcc80bd8f3495U,
  0xbd4b37d73d8a4e18U, 0x3dbbd0babbba1960U, 0x3d0992f43c150c10U, 0x3ce69b8abd3ee743U,
  0xbd0dea69bc9380b8U, 0xbd085520bdc3c819U, 0xbd4940ae3d380dccU, 0x3da93f853c7d20ceU,
  0x3d7fb4c7bd26eee3U, 0xbdbb88763dc12d3aU, 0x3ce1e148bbc8753eU, 0xbdc82b34bdc5fe9fU,
  0xbd450945bc36f47bU, 0xbd3db7883adce6a2U, 0xbd18132bbd2b11d0U, 0x3d377238bcb9fcb2U,
  0x3b808560bb47d440U, 0x3db45bb13dbce4b4U, 0x3c4418fdbd6e1e3eU, 0x3d291aabbd15b9d1U,
  0x3d32f248bc9115a8U, 0xbdb9e6a43dbe5428U, 0x3d980b6abd1bd71eU, 0x3ca4c42c3d92ca28U,
  0x3caab7bcbd407a4bU, 0x3d1b2970bd0cc8b2U, 0x3d1deb68bd31d5f1U, 0xbd8ffd0c3dd4802cU,
  0x3d969cf4bdaa6f59U, 0x3d0d9ad1bd5bcfadU, 0x3ceb95b8bd8d17c2U, 0x3c98cf763c48b0daU,
  0x3c8f035cbd10283eU, 0xbd2a7492bcf004fcU, 0x3dabc98cbbd6fd59U, 0xbdd813303da97bd6U,
  0x3d6cd67c3d1d6ae8U, 0xbc3dafb03bdb35a0U, 0xbcaf42e1bd1d941fU, 0xbcd1bff8bd846465U,
  0x3d0e78093c626350U, 0x3ce1424b3d90da18U, 0x3d1e2093bd8caa0eU, 0x3d6d1d583d74cddcU,
  0x3bcae910bd52dc5dU, 0xbcbbe0913d880c6aU, 0x3d54a598bd893399U, 0xbdb633cbbdb0a2ceU,
  0x3d595fecbd04d418U, 0xbd4764cf3db429c0U, 0x3d59922e3d494944U, 0x3d82202d3c70a284U,
  0xbdaa2e52bd8d2d55U, 0x3d378f583d727efdU, 0x3c92e74c3c80432dU, 0xbdd46a85bc2ec818U,
  0x3d8a913cb95ede00U, 0xbdd4cbde3d18d369U, 0x3d9953b43d018ea8U, 0x3c944edc3d8dc868U,
  0x3d672a08bde022c7U, 0xbb0b08c03d62857bU, 0xbc0787f43c89205aU, 0xbccd7fccbd80d802U,
  0x3d453e80bd560567U, 0xbd5ea0a4bc5bb6b8U, 0xbdbe7d333d59b578U, 0xbcde405cbd3b4715U,
  0xbcfe65b83da0f8d0U, 0xbcb94e083c0b8c77U, 0xbca99721bdea8298U, 0xbd831fe6bcddd957U,
  0xbca20b6cbd56ebc7U, 0x3da87bf7bd837d24U, 0x3d03f5b23d4ae224U, 0x3cc4ccbebc7d6e48U,
  0xbcb839cc3db0f5beU, 0xbd699402bab5a000U, 0x3dbca9153bfb157fU, 0x3c4b97a0bd8f4adeU,
  0xbd9c9d7cbd6fe2aeU, 0x3cb2f639bd209d3bU, 0x3d243f7c3d920fdaU, 0xbcb7720cbc146520U,
  0x3d13c544bd905164U, 0xbce82af4bb0bfc26U, 0x3c03a920bd6d1d36U, 0xbdb49b31bd93c1c2U,
  0x3c65cfe0bccb4c17U, 0xbc19bb203d832c09U, 0x3d07d0803d809a21U, 0x3ca945cc3d74f7abU,
  0x3d719cdcbcf80fe8U, 0xbd9db8d6bdb27521U, 0xbd9b165cbd4a7946U, 0xbd40ca9d3d40f574U,
  0x3d8eec5a3daeb97aU, 0xbc32efe23db6762dU, 0x3ccc6568bd5fad51U, 0x3da18dcf3d276f84U,
  0x3d6130493b527fe0U, 0x3cc9e9193d730bd5U, 0x3ddb54d53b6a0420U, 0xbca66cd83d99c024U,
  0xbdc4a0ddbca5b627U, 0x3daba62cbdf08aebU, 0xbd135b9cbd443810U, 0xbd818dfc3dc2eeb9U,
  0xbd6677a03c5be398U, 0xbd8fd63c3c08b0f0U, 0x3c04db2cbd34e5a0U, 0xbdd1e6a8bdb7c8d5U,
  0x3d66b20a3ca4ea08U, 0x3d0d1e3cbcadd72cU, 0x3ca15dc83d856d9eU, 0xbd139ec13dae99b4U,
  0xbdbb8e9cbd185fb8U, 0xbd9c6bb8bd2be062U, 0x3ce35fd8bca2ee70U, 0xbcdf91403d5f17acU,
  0xbb28e36dbda34906U, 0xbdfa70bbbdb84d11U, 0x3acff300bc91bd86U, 0xbd0716c33c89b184U,
  0x3d3625263dc58eccU, 0x3d112548ba6c1f22U, 0x3d7a19e43cb71d7cU, 0x3c887814bd752e5eU,
  0xbd7d41d73ce4891dU, 0xbc8ee3383d04ce23U, 0x3d2a7091bd6bc7ebU, 0xbda0c2433d942e82U,
  0x3d7a37ac3d8d053aU, 0xbdaeb3b73c1a3918U, 0xbd9873b1bd6a8fb4U, 0xbd0d9e023ce96462U,
  0xbd0cc0eebd010930U, 0xbd843186bd0606eeU, 0xbca2680a3d743610U, 0x3d046f2cbd4fc74dU,
  0x3d5699cabc1fc88aU, 0xbd76bb4fbcef7f38U, 0xbd39fe8e3d3fdda9U, 0xbdbb83393d16d795U,
  0xbd9ce69abdb48774U, 0x3c05ce1ebc6af818U, 0xbc10e8c8bd4b4812U, 0x3dd15f333d9d0f80U,
  0xbdb612823dc0a9daU, 0x3c1831b03d73b9dfU, 0xbd200dfdbd7b9e02U, 0xbd35b96a3db45bf3U,
  0x3daeec6e3d52fb28U, 0x3cd8f7483ca75c28U, 0x3ca3d91c3ceeedecU, 0xbdac4bd9bc8f10bdU,
  0xbcf61ce53be8b0c0U, 0x3d7e4aacbc389845U, 0xbc0b12423c15ffc0U, 0xbd7d474f3c188290U,
  0xbd92dd123dc3b2a4U, 0x3cb5d294bb14e8faU, 0x3c294f58bdab0b27U, 0x3d34ffd83d58e1ebU,
  0xbd1468c8bd9cc871U, 0xbdadb494bc0d68f4U, 0xbd9fe204bdba4f25U, 0x3d662113bd5cc359U,
  0xbd1ad1c4be0a33b7U, 0x3c109cc8bd01c158U, 0xbd137e023d7bad8cU, 0xbd6060ba3ceb1018U,
  0xbd907b343da8a573U, 0xbc8f1884bdba2cf5U, 0xbd905914bd4f3794U, 0x3df0fdf0bd0b14cbU,
  0x3dacf586bd16e1d3U, 0x3da43794bcac5122U, 0x3acf48593bc82860U, 0x3ca9cf28bd898f96U,
  0xbc2c7e63bd96bad5U, 0xbd70970d395d0000U, 0x3d20814c3db88c6eU, 0x3c3fd12f3dbc50a3U,
  0xbcd9baa13ce1a684U, 0xbd45869e3c514775U, 0x3d921be4bd8209c9U, 0x3d1570ac3cb2515eU,
  0xbc851b2439d1a600U, 0xbc16f10d3d067b2cU, 0x3d610d7c3db15062U, 0xbda126963d7e4cacU,
  0x3c21556c3c99f884U, 0xbd8096e4bd95cef6U, 0x3d79dc2e3d736dc8U, 0xbd6d067e3d7bb891U,
  0xbcae99e8bd87d82cU, 0x3bc18bb3bd79bdf7U, 0x3d53057c3d467f30U, 0x3ca0ea443d85aeffU,
  0xbdb6cfd6bd7b1c7bU, 0x3d75dc183c2d6dd8U, 0xbe0105083cec9dd2U, 0xbc9344103d4c433aU,
  0xbd3e5947bbc469c4U, 0x3cf6cb36bd4bc5d2U, 0x3da446193dc07580U, 0xbd408c343d6119d0U,
  0x3d7de2263d97ba8aU, 0xbd822602bd793c0aU, 0xbdaeea9d3d777260U, 0xbd526f21bcb20828U,
  0x3dc6ec47bd98c535U, 0x3ba5e2823d3890ecU, 0x3cc93be0bc345babU, 0xbcbcb7bd3c89298bU,
  0x3c30de0f3db92ba0U, 0xbdac42783d014be0U, 0x3d5892b03db0526aU, 0x3d878a80bd977a7cU,
  0xbcdf0b34bc1d8e61U, 0xbd536c0c3d8c00f6U, 0xbd9779023d7af6f0U, 0x3bfb5a5c3d3558daU,
  0x3ca35da7bbb07580U, 0xbcd7c655bdab93e8U, 0xbdabb8503cf47788U, 0x3e05440cbdb8578cU,
  0xbd404642baa90b40U, 0x3d9389c63cfe0ec9U, 0xbdaca6843ce9d792U, 0xbd82ef51bd54b6d3U,
  0xbbe47740bd05c4b5U, 0xbda404873cc7259bU, 0xbb1f4ee03dc1a664U, 0x3bdb8620bd824ca9U,
  0x3c78cc18bd872f98U, 0x3c958be9bbab7770U, 0x3d83582a3aed27b2U, 0x3d094cc8bb9236d0U,
  0x3cf6e9c8bdd21c8bU, 0x3b9529803dee7ebdU, 0xbc963a483c4497c8U, 0xbce92b0cbe099834U,
  0xbdac8d49bdc2c95dU, 0xbd4a0d34bd2e1719U, 0xbd55d80a3da52e76U, 0x3c173e08bdce708fU,
  0xbd986145bccb025eU, 0xbcaee5313d69a8b0U, 0x3d326b28bd7325b2U, 0x3c498c2d3d17eb27U,
  0x3d3f94a93cb47224U, 0x3d942ab53d1d8fd1U, 0x3c8298e83da0836fU, 0x3c8ecd24bce523b5U,
  0xbe0a5067bd7ca990U, 0xbd4c8c873dbf433aU, 0xbcea50d03ce24e74U, 0xbc99fba13b27108cU,
  0xbd7244133dad246cU, 0xbbf8b7e0bcb92ae4U, 0xbd47ad0b3db0ee6eU, 0x3d2c940bbc072414U,
  0x3d99c70cbd24f3f0U, 0x3d0296c43c1cc018U, 0xbccb8eb43dce734eU, 0x3d79f55bbdc5abc7U,
  0x3d81463abd168431U, 0xbcc3d675bd2c3b8bU, 0x3c63b9c43cd22ddcU, 0x3d7cb6303c9e6eddU,
  0x3b2fb5a03c735810U, 0x3d29c3ec3bed3990U, 0xbc875742bbae22b3U, 0x3d8b29cbbdcb2a8cU,
  0xbcc3fd24bdadbb9cU, 0xbd1abcd93d1e5d04U, 0x3d316d943c362bd8U, 0x3d91fedcbdaedd81U,
  0x3d36b710bd3a4edcU, 0xbda9d0bd3e09b885U, 0xbd2fbb3f3cf8b1ccU, 0xbc145243bd554193U,
  0x3da875c8bdb320e9U, 0xbca856d8bdf95f7aU, 0x3d04c0183d7e05b8U, 0x3cff8f7c3cbd5ea5U,
  0x3dad2f88bd1a4883U, 0x3ceba329bd628de7U, 0x3d073f98bbec033dU, 0xbd6db8bf3cfc9108U,
  0xbd83b6c0bdb3d2f6U, 0xbc6d871a3d436956U, 0xbcc54a02bd847f3eU, 0x3d9e43983d2e2355U,
  0x3d70154bbce6859cU, 0xbda85555bd3f17e6U, 0xbd9aa428bd8b2a0aU, 0xbdc3fe5bbd9a9b5cU,
  0x3d02c54b3d5a444eU, 0xbdb96b73bc9f4181U, 0xbb7fcca93dad1a20U, 0xbce8d89d3d928ac3U,
  0x3d97e1e8bd92ea75U, 0x3ce4d95cbd02f480U, 0xbc0423513d99f7e0U, 0x3dd83fa63d576b06U,
  0xbce9b318bcee82f7U, 0x3d3498cc3c6d44bdU, 0xbd7b53cbbda44ea6U, 0xbd85ad51bdaabcc0U,
  0x3d9baa4a3d253a30U, 0xbd99bc21bd231ad9U, 0xbe04d7bebd7910e7U, 0x3d727860bdc635f1U,
  0xbda41c14bda12f79U, 0x3d91633abd869c0aU, 0xbd07a5d13d842a58U, 0xbd7bd30bbc7c72d8U,
  0xbdba5072bd952082U, 0xbd9d13c5bd8354a0U, 0x3bb52818bda7d9e8U, 0xbc3bfb533c861cd8U,
  0xbdc446a33bb1019dU, 0x3d61abcc3e15d729U, 0x39f07f6b3dc8d30aU, 0x3ca66d183dd39588U,
  0xbd30872ebc78c925U, 0xbd4dc07e3d55d511U, 0x3d82b510bcc30ac0U, 0x3c11d1ea3db46a10U,
  0x3cf926c03d1a9c6cU, 0xbd42123f3db37d5aU, 0xbdb63580bcc0c4d3U, 0x3d21bfbc3c245a70U,
  0xbc8c4189bd67e1b4U, 0x3d2195fabcf1551cU, 0xbd2e83593dc3a8f4U, 0x3b09b260bdb21875U,
  0x3d8cfd54be10aa73U, 0x3d67eb48bdbc954aU, 0x3dc5616cbd453828U, 0x3dc20614bd9acd21U,
  0x3d8f396cbcd16f81U, 0x3d46d60cbd862260U, 0xbb8dd1b1bc2e4644U, 0x3da01ff2be1f7a19U,
  0xbdb4733e3d228738U, 0xbd4fdb7b3c9543f7U, 0x3ba71db1bd87885dU, 0x3c758eb03db9f3c2U,
  0xbd1bd84ebdba362bU, 0xbc018c093c4fff79U, 0xbdad96f7bdcd684aU, 0xbc940f223d2067c0U,
  0x3d7c22c0bdc2b8f7U, 0x3c096df4bd53ff5bU, 0x3bbc84a13d9952d0U, 0x3d8314fcbdb43f92U,
  0x3b62e64bbd41916fU, 0xbcb90e30bda50cc9U, 0xbda167913d363250U, 0xbdf749683d8d4167U,
  0x3c1ecb38bd5e5be7U, 0xbd9d2a10bd5aedd5U, 0xbd43b927bdc18883U, 0x3da07a58bdbd31d9U,
  0x3d45a49cbdb8d6b5U, 0xbd85d536bdcfe0beU, 0xbd072a14bd37dbf1U, 0xbe1445e73d801488U,
  0x3d2bd4f03dea5d4bU, 0x3c82250c3bc34970U, 0x3dcc4778bc1f3430U, 0x3d14ebf43cf05e80U,
  0x3c3153e4bd90abb2U, 0xbdb66a84bcaf29abU, 0xbbe806303d3ce2b9U, 0xbdcc917fbd648c0cU,
  0xb9fa2473bcb62728U, 0x3d11398c3d8c6678U, 0xbd8c0f3cbdaaa20aU, 0x3c1d90afbd8d0ee0U,
  0xbda61d743dd581ceU, 0xbd1eaa79be0f8f91U, 0x3d949aa3bde7c413U, 0x3d5464acbca57094U,
  0xbc8541f1bc1ca991U, 0xbd66f346bda85bf0U, 0x3a8ea100ba328380U, 0x3d0dea863d182d28U,
  0xbc96792c3d0cf432U, 0x3dba19ae3da55dceU, 0xbcfae149bdaa4399U, 0xbd87dcb93d38980cU,
  0x3ca32ebb3bfa321fU, 0xbd0cb1f53d1f03d0U, 0xbd7c0f573c33f722U, 0x3cd385403c902255U,
  0x3d8f3430bda1472aU, 0xbd153b983d3cfea4U, 0x3d036474bb9eb988U, 0xbd0a0d95bd0c46fbU,
  0x3c7cd4403d471e20U, 0xbc58fb75bdb0895fU, 0xbc3d993bbd64b7b1U, 0x3d626fe0bd03efecU,
  0x3d045220bc3935c1U, 0xbdbd42d43c0d45d0U, 0xbda693cdbd4111d8U, 0x3db89a12bd8c99eeU,
  0xbd6482cebd55d8e2U, 0xbd23f13bbdbb761dU, 0xbe0b1dfd3d842854U, 0x3daf2ca8bd853bdeU,
  0x3c6122c03d04ebc6U, 0xbd6e70b63de5b7c2U, 0xbd838cc43db27990U, 0x3db7d8e43cb82670U,
  0xbd83015a3d5a2659U, 0x3b2fa3cabc965c24U, 0x3b8e2a403b8b8ba5U, 0x3da32b123ca52ae8U,
  0xbcb7622cbd2506a3U, 0x3d6e90983ceda430U, 0xbdb9f12b3bd2ee80U, 0xbdadfe15bdbffd81U,
  0xbdbece4abd3553cdU, 0xbd03cb4e3cbf0638U, 0x3d8b4fdabc2a12d0U, 0xbdad411dbd12cd35U,
  0x3c08be28bd05b909U, 0xbd9f70c43cce7eb8U, 0xbd74ebc3bdbf1ff2U, 0xbc2b27723d749b9cU,
  0x3d7006e9bdd65c59U, 0xbd08e5063dc5ac86U, 0x3da98bf8bd8e6fc0U, 0xbbff65b3bd80603dU,
  0xbcad2e953c9b7508U, 0x3d5ac5bc3d826e82U, 0x3d933cb23cb181ccU, 0xbcb22938bd2fc076U,
  0xbd2eba52bd7a2ce4U, 0x3c315edc3c1c5150U, 0xbd62aa083d652258U, 0xbd6bbf463d9bc47eU,
  0xbdb2bb2abdb419ebU, 0xbd692d683af990c0U, 0xba1dffc03ce5ca2cU, 0x3d80eccabbe46d3eU,
  0x3d27748b3d866b4aU, 0x3dfcddde3c243971U, 0xbd81b3603d96655eU, 0x3ce7ed38bc56fb06U,
  0xbc936318bdb95fe5U, 0x3ceee4e03ccd9094U, 0x3d9a8ff3bcffdeb7U, 0x3db621743d363aebU,
  0xbcaf5db1bd7b2e49U, 0xbe11e1f43cfe4c80U, 0xbd8d220fbd3f5f6aU, 0xbd933d733d1463f0U,
  0x3d5cd4e5bcb38cf4U, 0xbd2cfb47bdcb871bU, 0xbcf24fa43d56f6c4U, 0x3daa82fdbd5bc286U,
  0x3d011b68bdd2d61aU, 0x3d97bbe7bd1955baU, 0xbda52f61bde59870U, 0xbcbce15b3d5f5c00U,
  0xbd3315ce3d046860U, 0xbd931cd2bce17910U, 0x3d5899ff3d27eba0U, 0x3e3278413d730ea3U,
  0x3ccca0c43d8fdb2cU, 0x3df053fcbd606accU, 0xbd7af2403cdca744U, 0x3c8d0d043d880db3U,
  0xbd5387bdbcad6d08U, 0xbde40c8dbdbc3b43U, 0xbd7e0d45bd904844U, 0x3e28857b3d561ab7U,
  0xbd9e75e0bd6c0474U, 0x3bdf75acbdb4c405U, 0x3c63b6a4bd8768aaU, 0xbdbc03f9bda00112U,
  0xbc686e60bd5032daU, 0xbd47c2f8bd72ea45U, 0xbdc37d403d0fd2a8U, 0xbd81fe333d9845e4U,
  0xbda760703d847c8dU, 0xbd8a4176bcfeecbcU, 0xbcfa22ccbd98d5c8U, 0xbdc47f71bd6e4cddU,
  0xbe26dd533d3de70cU, 0x3d242e143d46f254U, 0xbd8d19c1bd0aa1d1U, 0x3d9f8fb83d164f68U,
  0x3c983ada3cb91308U, 0xbd167457bdb1afa8U, 0x3db5f722bdc81764U, 0x3db1c46abc2859f6U,
  0xbd91a8e63d321c7fU, 0xbd1042fdbdbb83fcU, 0xbc34396cbd69a82cU, 0xbc9424163bb8f8ccU,
  0xbd9b5be7bce76f5cU, 0x3cc0580abd508b07U, 0xbdc0d9a93d5bf090U, 0xbdbc06f0bccc6fcfU,
  0xbbca2cbf3d0bbc6bU, 0xbda83b21bc811aecU, 0x3ad66a40bd1f8779U, 0x3d20e024bd045b16U,
  0x3da5ca6cbdc5fe00U, 0x3dc0b2943bd54ca0U, 0xbceebadebd8e7770U, 0x3d408f4bbd15e585U,
  0xbde9f4523ca4a3e4U, 0x3d9ff4043d466398U, 0xbd9df1d63ca1256fU, 0xbd6a90ddbd99ebb6U,
  0x3d9bbadd3c1ffc65U, 0xbdbedb0bbd913361U, 0x3d6d4ba13d614c1eU, 0x3d3b6778bd5bf48dU,
  0xbd35f4d5bc98d4c8U, 0x3e06b6acbd79874bU, 0xbcc5fe493d174721U, 0xbd26f14fbd7765b1U,
  0xbda8e8f7bd0380c7U, 0x3c47f26a3b22c8e0U, 0x3d8d8de03da22614U, 0xb9bbdd003d92cbdcU,
  0xbcbc52af3ca4a84bU, 0x3da498b23d617530U, 0x3b1aa280bda0f81fU, 0x3c8795babd3d84fcU,
  0x3d6546b83d53ec0cU, 0x3be9b1a2bd11864bU, 0xbe0a30f0bd8f9116U, 0x3da033c43bb5fc3eU,
  0xbd8f38243ce6c6dbU, 0x3d2999573d03976cU, 0x3cf5b7c03b031016U, 0x3d4070113c72e858U,
  0xbc1c9628bd369884U, 0xbdae8d0abdd084e6U, 0xbcafbbe53cbbad23U, 0xbd7605523c43913cU,
  0xbd8d98dc3d0fc950U, 0x3da046423d619184U, 0xbd48a36cbdbf3c31U, 0xbbb5dd503d45b12cU,
  0xbcc8ee963c2c2f94U, 0x3d39e0243d81da82U, 0xbcddf3763cef586dU, 0x3d8a13a23d36e6fdU,
  0xbcb003e4bdb1eec7U, 0x3db163c03d848130U, 0x3b4a3ae23b2db720U, 0xbc66ed73bde1b904U,
  0xbcea2cb43d884084U, 0x3dbfa6c73d935ad7U, 0xbbd9a5b0bd18d5a7U, 0x3d693be93bba0380U,
  0x3d8464fcbdb962ecU, 0x3da081373d118502U, 0xbc1e17fa3cf71f48U, 0x3d8f4e0cbd0c66a4U,
  0xbda44f62bd0dc611U, 0x3b60c4803d3bcd12U, 0xbdad8cedbd96c7f7U, 0x3c6e9338bbb85b3aU,
  0x3d9f68bc3d4ca11cU, 0x3c013e983d4d8e4dU, 0xbb45c0d63d53e370U, 0x3cb8df613cdcd17cU,
  0x3d94ff58bc406ae4U, 0x3dc1670d3dc5792aU, 0xbcfa6121bd877b1bU, 0x3dbf081ebdbf00b9U,
  0xbd85517ebc57843bU, 0x3dd2949f3c5cbd5cU, 0x3d7111fb3dadf91cU, 0x3d28c75cbd642074U,
  0x3d52365c38f29800U, 0x3cf346e03dbad04eU, 0x3db5a50bba917225U, 0x3bfa98b03dabd580U,
  0xbda0e0623c82dee8U, 0x3cd2e5ba3d7893f3U, 0xbd2b80c53db15e50U, 0x3cf333483db7ccd0U,
  0xbccf717c3d963a7aU, 0x3d95c13c3d4cdc12U, 0xbc98f5503b8303f5U, 0xbd805acebc9a0f08U,
  0x3cf45188bc710629U, 0x3d45da78bcf68b90U, 0x3d982a4ebb99df54U, 0x3cae2d38bd0ab3a7U,
  0x3d6d8f78babe8940U, 0x3d86629a3cc97915U, 0xbdb7af12bd6f4e3fU, 0xbd8e8ec9bd060286U,
  0x3d8526b8bdb61fa7U, 0x3afd82b43d9717f7U, 0x3d95dfa0bd6ab625U, 0xbdbe7cbc3cfbc170U,
  0xbdb673053d95c40cU, 0x3d8c36a53d869e25U, 0x3ca7c685bd9fa9c3U, 0xbd0cb1c73d2e94f5U,
  0xbdb65695bdc94342U, 0xbd45812bbd82888bU, 0xbd3955b83ca60460U, 0xbc24cca13e0934e2U,
  0x3d1952d83c494f60U, 0xbdb66fcc3daa4a32U, 0x3dbe1dbcbd916a3fU, 0xbd2ae7ffbbafb2e0U,
  0xbd2164d13d952334U, 0x3cccc976bd512f12U, 0x3c26d3183e23ef96U, 0x3d2661d93c3ba040U,
  0xbd0e5da5bd9da1e1U, 0x3d1244f83ce18844U, 0x3d9b75ddbcc61dc8U, 0xbd059ff4bd037e28U,
  0xbd8899edbd4a43afU, 0xbc8ff1a63ce9cc8aU, 0x3ac06d40bdc42bf9U, 0xbcedb8cb3d8c9748U,
  0xbca9b107bdb4e053U, 0xbc7123603cb524b1U, 0x3d8f400e3db7c304U, 0x3ce1fa64bb352780U,
  0xbb27d7a03c1aa3f0U, 0x39d6b500bdd12806U, 0xbc69078fbd0590cbU, 0x3d15d187bdb3f011U,
  0xbcd325d33db533c9U, 0xbd8699233d9d51daU, 0x3d0516bc3cb71374U, 0x3d4f52ac3cdbff04U,
  0xbd3b2f05bd2098f9U, 0xbd13b206bdad2750U, 0xbdb6fec53d1b758cU, 0xbda17902bc563c7cU,
  0x3d18ae7f3da5008dU, 0xbd8a4840bc0b7f88U, 0xbdbdac773d143817U, 0x3d4124383c615374U,
  0x3ba14600bd5a2a7dU, 0x3d8dc394bd87da63U, 0xbd282567bdbfc65cU, 0xbdc790a5bd1bb903U,
  0xbc4ac4d03d844caeU, 0xbdc640afbdade83dU, 0xbcad68603c16d890U, 0xbd51a8f9bd0b1d47U,
  0xbda18c123ce7b1dbU, 0x3ca4fca03a8b9440U, 0xbb61ea2c3c175e51U, 0xbd8a1e5ebc9eda89U,
  0x3cc3112b3d1898feU, 0xbd1cb42dbc64710fU, 0x3d69b5c9bd06274cU, 0xbd26cb923d8ef6e2U,
  0xbd38ec593c3eaf36U, 0xbcd3e39c3d4db80cU, 0xbdadec8bbdc29751U, 0xbd1bc75c3b7cfb0dU,
  0xbda5b359bdaccae6U, 0x3d9185693d762902U, 0x3c9ceab0bdb9198fU, 0x3cc24f79bd898b22U,
  0x3be88a103ccee08cU, 0x3ce048403d3c2820U, 0xbcf7bf64bcce4250U, 0xbc2167b0bd62aae1U,
  0xbd694772bd7bc4dcU, 0xbca2ce003daa55aaU, 0x3d213cecbd9eb27cU, 0xbd1183d6bc67cfd1U,
  0xbd917d903d97706fU, 0xbc97af503ca34235U, 0x3cf62fd03d961490U, 0xbdcb606abda7f168U,
  0x3d37845ebd991266U, 0xbce24479bdbc1811U, 0xbcd386503c8f526cU, 0x3cb3459fbd69fb7dU,
  0xbce3d767bd1356beU, 0xbd1a4ecfbbccb75aU, 0x37616000bdd853d5U, 0xbd96c29bbda60c6eU,
  0xbd47a16c3b9fb840U, 0xbd2eea1ebdc517e6U, 0x3d1388d43d8878acU, 0xbd44b763bdb63ed1U,
  0xbd8caa353ce5b460U, 0xbd50b402bc4e7100U, 0xbc81ab973da624b8U, 0xbdbb5eed3cf3cc2fU,
  0x3d380d1ebd4776deU, 0x3d8d5e1a3d58079bU, 0xbd002ad43d3b0034U, 0x3d9802523d399ae4U,
  0xbc4705803d9d19b0U, 0xbce6bc083d2b371cU, 0xbda30ed3bc8d695fU, 0x3d01b5d83d4904afU,
  0xbccb50bcbd9a9cd6U, 0xbceeca013c8af210U, 0xbd9dcb01bdb707b0U, 0xbd21cabdbdbc2df2U,
  0xbc7ffd35bdacca0cU, 0x3d2d6e3a3d6a378cU, 0x3d8536263c627a30U, 0xbd763c96bd31204fU,
  0xbc59445fbdb30e9bU, 0xbc593db13aacd040U, 0xbdc95f6d3da58b35U, 0xbd07ab7a3d3caeeeU,
  0xbd9df41cbd02bde4U, 0xbbbe74703d997542U, 0x3d860dea3d910dc0U, 0x3ca04409bc52a9f1U,
  0xbd9ec6863cb3bf5cU, 0x3d2dea493c8626dcU, 0xbda85e663cf25840U, 0x3d9aec67bd98e333U,
  0x3c752345bd69045eU, 0x3c39a5433cd01598U, 0xbc6908283dbaf4d2U, 0xbdc1d65c3d2975e2U,
  0x3d96a1f03c29a4a0U, 0x3d8a5739bcf55031U, 0xbda5a63cbd85dbfcU, 0xbdc5b6bd3d8a2946U,
  0x3d4f10a8bdc99badU, 0x3c96d31dbd42f02cU, 0xbdb905953cc38854U, 0x3d334bb83ceb54f9U,
  0x3d77d214bd9fde8eU, 0xbd0613b3bc84eec0U, 0xbcbe28d8bd01975eU, 0xbd03ec703da5511cU,
  0x3bda227fbdcc99ffU, 0xba0f97803d1a2670U, 0x3d7599973c923e33U, 0xbc9a38f4bdcf034eU,
  0x3d9715423d55f6b4U, 0xbd294123bcb9c888U, 0x3d12922cbdc94eacU, 0x3da913d8bdab6b9cU,
  0xbc390d92bd52c415U, 0x3db6145bbc010fa8U, 0xbc829a513d513908U, 0xbdde3dddbd057a65U,
  0xbdd4f8a4bd37c3ccU, 0xbd93a5b03ca0f97aU, 0x3dc0c71a3d09db7eU, 0xbd6f9bafbc9c372fU,
  0x3db8a1e4bd3de2f7U, 0xbc956578bc464750U, 0x3db3b44a3d62850cU, 0xbdd14f32bd9aef78U,
  0xbdd68ba5bdbde60dU, 0x3c5cc7e8bce7234cU, 0xbd0c55b2bd119941U, 0x3bc93725bda3e1ddU,
  0x3d448ee23d4f5e60U, 0xbcc472bcbc947c68U, 0x3dac9e663d5d4e30U, 0xbd5ceb69bd2f2d44U,
  0xbc6b4b6fbd8b243aU, 0x3c498c093d62bea4U, 0xbbcb58abbd6d91c0U, 0xbdc1bbf3bcb04e6bU,
  0xbc9876183c964144U, 0xbca0bbddbc838010U, 0x3d8ceb023d50bf3eU, 0xbd498bf03b84e08eU,
  0xbceee6a0bdc4e5c3U, 0x3d905b10bcf63900U, 0xbd8a39a83d950bd0U, 0x3daeeecc3bd6b690U,
  0x3c54cac8bd9ef4e6U, 0xbd2f1562bd60b7faU, 0x3d4df4283d01564bU, 0xbc9856f23d887d8fU,
  0xbd13709fbd51463bU, 0x3d0f43ae3c54993fU, 0xbca23e77bd11df29U, 0x3d80c0c83d232bf3U,
  0x3ca321743bf177bbU, 0x3d69eb5b3b16e580U, 0x3db6e3783d66c0d6U, 0x3d2d8a6ebdbca43eU,
  0xbd8c0f903da749daU, 0xbd6e7a45bd94cd6eU, 0x3d0736623ce33d72U, 0xb9e1cf00bd28ac82U,
  0x3da19ef63d7638c8U, 0x3d9657d5bc775697U, 0xbc4d30da3c9e5df4U, 0xbc8c06343d693dbcU,
  0x3d0980d0bd370d60U, 0xbcc91a5d3c82d37fU, 0x3cd08cfd3da27670U, 0xbaae09a9bcda8d89U,
  0x3d9d16f43cf87680U, 0xbd2e476abcb4d450U, 0x3d66d595bccb9830U, 0x3cadab9f3b5358c2U,
  0x3d0e7f88bd3b2824U, 0xbd6820cebcb98a46U, 0x3d865a84bd9dd000U, 0xbdc600333ba72b80U,
  0x3d1bf4043d95c38cU, 0xbd756dafbbab9c3dU, 0x3d4cda573c4ab9f8U, 0x3db29652bdb257f7U,
  0xbd7ba134bc810aa0U, 0x3d4149e4bc3e1492U, 0x3d1ca178bd2baa0fU, 0xbda30d55bd88506aU,
  0x3c2674c8bd8471b2U, 0xbd90fd71bce0ed5aU, 0xbd76b89f3daed680U, 0x3d02449ebcd639fcU,
  0xbd6540fd3d477e8bU, 0x3d3246c8bd40a8baU, 0xbd3e09f73d671cbfU, 0x3b9c5ef0bdb25f23U,
  0xbda31b3ebc2b33cbU, 0xbd8148d9bdd97cfeU, 0xbda4353a3d089a5cU, 0xbd2a89ff3d0004d8U,
  0xbd88c3d53d04f0c0U, 0x3d317dd8bd60f6bbU, 0x3d686188bd0ae04fU, 0x3d8644d0bc9aa2a4U,
  0x3d775c603cb401ecU, 0xbd955f623bacfc87U, 0x3d831048bdb33924U, 0x3d1ccd2c3d678320U,
  0x3cf22ab03cd57e0cU, 0xbd69440ebda3580aU, 0x3d34ae643ccf3149U, 0xbd6633193d94b710U,
  0x3c92d5a03bbfdc94U, 0xbd47c6f73d8fca49U, 0x3d2e2cb93cd281aaU, 0xbd903623bb808aceU,
  0xbd8e11c2bcbd7918U, 0xbd8d6ab0bc040fd3U, 0xbbf175f13c84f97cU, 0x3c2393603bade100U,
  0xbd506f793d7171ccU, 0xbd17ca533cb33c56U, 0xbd9d3897bd86dda8U, 0xbc14971d3c833024U,
  0xbd9b11d63d7f5e4cU, 0x3d87c47fbc4d9022U, 0x3d3020e7bd8765b4U, 0xbd9b5911ba8cd816U,
  0x3da0f9b93cbbd1d0U, 0x3c9497acbdd09c80U, 0xbd9f8f5d3cf9a8e8U, 0x3d958f7c3cf87840U,
  0x3d0abcb4bd455182U, 0x3d8763d03dbd1f91U, 0xbbbf61cd3db77694U, 0x3d8486333db9b884U,
  0xbda92a44bcdbaf68U, 0x3db50f0d3d8eee7eU, 0xbd9e86c73ca4f210U, 0x3c438db13d62ee84U,
  0x3ca7e88cbd188f21U, 0xbce88668bd040750U, 0xbcc44d723d0115b8U, 0x3ce3d8643d9db0f2U,
  0xbd2b738cbdbb23d3U, 0x3d435a733d936c42U, 0x3c838d88bca7e1a6U, 0xbd2de24e3d7a523cU,
  0xbda8a4643dc4149aU, 0xbd4e576dbd8fe962U, 0xba407200bdb4a338U, 0xbdaeccc9bcd2f0e8U,
  0x3c7a2590bd9c64b8U, 0xbd24df573d420dc3U, 0xbdc7ce753d05205fU, 0xbd5650a4bdb365beU,
  0xbda9926dbd2b1b1aU, 0xbda4d0d6bda5b4d0U, 0xbd881e7abd725ac0U, 0xbd2737a33d9743f1U,
  0x3d9571b8bd570fe8U, 0xbcf865b0bdc374bbU, 0xbda31b6b3ba85e70U, 0x3ca0d5583d482b44U,
  0x3c9acf16bdd27c63U, 0xbd81e6623d9ab416U, 0x3d7baae43ca3a6e9U, 0xbd48e3d3bd36147dU,
  0xbc8e27dc3d52d37cU, 0x3d9117c33d4081ecU, 0x3c5b8ec83d128703U, 0xbd378b37bdddd842U,
  0xbd6327083d92b404U, 0xbd3fdbe3bdbb4d9bU, 0xbdc83681bd00c922U, 0xbd897a48bdba6388U,
  0xbdb3aeb0bd8b5645U, 0xbd379cbbbdae32beU, 0x3d21accfbd2b7ffeU, 0x3be923703caff222U,
  0xbd301ea73cf27b7bU, 0xbda0bd733d942ffbU, 0x3d812cec3c5a9790U, 0x3d30f5e83d8a239cU,
  0x3da8192abd8318e7U, 0xbc3cea703d3e3f8eU, 0x3d1aacc83c54f468U, 0x3c71b2303d3b679fU,
  0x3d47da603d229735U, 0x3cde5def3da2a0b6U, 0xbcbf2a24bca336caU, 0xbdc22d943cfe0c58U,
  0x3c893e58bb240091U, 0xbba4f5e03d9441a0U, 0x3d374ccc3d343fb8U, 0x3d566c24bd7e8561U,
  0xbd6a1335bd285155U, 0xbd8edbfabd50179bU, 0x3dbd5214bdc0559dU, 0xbce7b12f3d377064U,
  0xbdb8a256bdd05b2aU, 0x3d0c9ed8bca876ccU, 0xbcb8f166bda03c9cU, 0xbd3a2c83bdb73894U,
  0x3d8663763da2f62cU, 0xbc703cf83da4f47eU, 0xbdc5dbe8bd92df1eU, 0x3be98b673ca2a14cU,
  0x3cc826e03d2cd628U, 0xbd0435663d883d4dU, 0xbd741f3c3836361eU, 0xbd97ca1e3b9d302aU,
  0x3dbc35a83db8a21cU, 0xbc2bc860bc6425d8U, 0xbd885400bd2b4969U, 0x3d87a76ebdbaa6f2U,
  0x3d0b13a1bd845c9aU, 0xbcc965fabc9f03dcU, 0xbd3ee9f1bd378c3fU, 0xbd31238ebc9e7190U,
  0xbd7e4fa93ce748f8U, 0x3da83417bd625e0aU, 0xbdc15162bd5010f3U, 0xbc4a3d28bd52d183U,
  0xbc6c23483d05630cU, 0x3da65084bd452c0dU, 0x3d67343f3d882e02U, 0xbdb2cd60bdbcc1fbU,
  0xbd678d8abbb293ffU, 0xbd8ad313bcfb1a84U, 0xbc974701bd849e31U, 0xbca3ec1d3da52b40U,
  0x3ce14e85bdbb09acU, 0xbdc235233d01fab9U, 0xbd1248b33d662504U, 0xbb61550fbd967a7fU,
  0xbde8d3bb3c6a34bfU, 0x3d43c3e4bda00669U, 0x3d66f50dba7f84d0U, 0xbd0d525dbdc1cb4fU,
  0x3d09895f3db5ea1eU, 0xbce7d9c4bd20a493U, 0x3bace101bd9364ebU, 0xbc9d810abdc7c756U,
  0xbda38a783b050649U, 0x3d08ea0d3d87138eU, 0x3dc8d9ae3d8796f6U, 0x3ce9d63abd3427f7U,
  0x3b5e51b9bc9c858cU, 0xbdaf4ac5bdc2cd21U, 0xbdb488503d8dfb94U, 0xbb39e82d3cfd539fU,
  0x3b81207cbd65357eU, 0x3d73e371bc043479U, 0xbd8e1576bdbc6d5dU, 0x3da45e86bd94b565U,
  0x3c00eba0bd9f42a1U, 0xbdba1baa3db2b286U, 0xbc3088183a77ba00U, 0x3cb45848bc336a3dU,
  0x3d0730acbdd57bb8U, 0x3d6c93d8bb936a90U, 0xbd9598ccbdc72ebfU, 0x3d10605e3d65c1acU,
  0xbd051aa4bd1dbcc5U, 0xbdbf46653d4f5bdeU, 0xbc0aae9a3d9bcc4bU, 0x3ccbada4bd029f95U,
  0xbd21e9d43d5d76dcU, 0xbd4edd1cbdb83be9U, 0xbc5bc9d83c937279U, 0xbd98838cbd0acea7U,
  0xbca6bba8bcd8a3c9U, 0x3c514d263d287bb4U, 0xbc1bc3cfbcb233c8U, 0x3a6f45613d5aa034U,
  0xbd61a6a23d0b1c14U, 0xbc43a9663d086e26U, 0xbd5040453c718305U, 0xbd25d2903d8accbdU,
  0x3c94e8313d84381dU, 0xbd7394babdaae6d5U, 0xbd721a88bb5100e0U, 0xbc139d863d4986b7U,
  0x3cf0faa93d6c2664U, 0xbd759e65bc977170U, 0xbd350221bd8669a8U, 0x3d8682f43d22add6U,
  0xbda9ba81bbe83ec0U, 0x3d4f9decbc8d2294U, 0x3d336360bde39cf7U, 0xbd9109593d3079e1U,
  0xbd82eb05bc986ee3U, 0xbc18f06abdb8dab2U, 0xbd2b6a913d1c4696U, 0xbd2a666ebdaf66b5U,
  0x3d49ac343cf27128U, 0x3d808ed5bcce384cU, 0x3d4d9858bdd04a88U, 0xbcc7e0b83d02c531U,
  0x3cdce0283c83953bU, 0xbdaaf4c93d5aa950U, 0x3bf96ac0bcedf1ccU, 0x3cd49030bd91db28U,
  0xbd0c7a753c8d4613U, 0x3d4558c03d6bc4d4U, 0x3d05d724bc115648U, 0xbca10d8fbd1d29f1U,
  0xbb7ffda0bdae2b72U, 0x3ca830d83d96b186U, 0xbd305d613cbb5b2cU, 0x3cd48b953c7e059fU,
  0x3c2f33e0bc0ab13dU, 0x3d44d3adbd23ea5fU, 0xbd2b698e3d9bddd5U, 0xbdd54d523ba91a40U,
  0x3d0a3574bd09b9feU, 0x3da370633d4ea1baU, 0x3d97807c3d889ed6U, 0xbcf861643d85112aU,
  0x3d26c6623dc31becU, 0xbc0984f73d1eda9eU, 0xbd7424fbbdbb9500U, 0x3d9cd050bd3f99d6U,
  0xbb974376bcf2d7e1U, 0xbd89fffabd8e34b3U, 0x3d64c4a0bd404397U, 0x3d374d403c2454ffU,
  0x3da610783d916478U, 0x3d2d43e03d9ad85aU, 0x3cb42f58bdb484ddU, 0xbdbf8e35bd6f00eaU,
  0xbd2944b53d7e46c2U, 0xbdb4f4e1bd38e6d2U, 0x3cc469343c3ffac7U, 0xbd467899bd249ae8U,
  0xbd0bd542bc6f38e0U, 0x3c6d35e9bd1a62c8U, 0xbca62ba03d425294U, 0xbb906f90bce6efa4U,
  0x3afc2d403d5c3be6U, 0xbd4402aabb071a5fU, 0xbc8624493d3a1354U, 0x3cd71df43d28e283U,
  0xbd6dbf42bb9947b0U, 0x3bd53d9d3d72c2e0U, 0xbdd4b020bc2eafc8U, 0xbc90024e3dadc3bcU,
  0x3dabfd50bd5631ecU, 0x3cfc9ba2bd4418f4U, 0x3bbdf05b3ca033a4U, 0x3c9de10cbbcc7586U,
  0x3c9a35ccbd80e6a9U, 0xbd686c633d2aa698U, 0x3c8de5f4bd69842dU, 0x3b63a55f3d16e7f8U,
  0xbd618f223d0ac468U, 0xbc162698bcc01500U, 0x3d22c42bbd245f3cU, 0x3a0508003d665618U,
  0x3c8df1cfbd784cb0U, 0xbdb023d2bdc3cb94U, 0xbc4c9390bccd905cU, 0xbd90db583d7c9480U,
  0x3d61d3e03d7eda5eU, 0x3930a200bd600e37U, 0x3d37a534bd080a56U, 0x3db73f08bd4882d4U,
  0xbbfb02a0bdad85d3U, 0x3c4019503d862b44U, 0xbb0d6356bb8f9f11U, 0x3cd10408bde23246U,
  0xbd8736bbbcb5c094U, 0xbde39b1c3d3da351U, 0x3d560467bcc48f10U, 0xbc2775483cc9239cU,
  0xbd8c913c3d78e528U, 0xbdb7a43dbd583f76U, 0xbdb2d12abdd6815dU, 0xbd8e97f03dad095cU,
  0xbd1e49ff3d9dad2aU, 0x3ca2f039bd01162eU, 0xbda0f74e3d918ad0U, 0xbd95adad3d389903U,
  0xbccf546cbd9da8aeU, 0x3c66e4083da91dd5U, 0x3d557fb83d494188U, 0x3d1c947b3cbe13deU,
  0xbc21c3c83ca1ace0U, 0x3d005e82bdc5dfaeU, 0xbb9cb9a1bb6aa340U, 0x3c010fb7bcd6da08U,
  0x3c9bd45ebd066c42U, 0xbd2cd0393d7de225U, 0xbda7b1973da7d758U, 0xbdd530febce48cecU,
  0x3d9983523c0e8a33U, 0xbd864f77bda2a64aU, 0xbdbc840fbced3cf0U, 0xbc9b707cbcf7b83cU,
  0x3b5157a9bd9535faU, 0xbc5b2cd43c6a4f5bU, 0xbdab7122bcff9b7fU, 0x3c2b572cbd3ed8f0U,
  0xbdcdbdbebd211a7bU, 0x38e58400bd1f680cU, 0x3d65c1e4bd3f16faU, 0x3c8f7518bbde0530U,
  0x3d9eab36bd854c9bU, 0xbd4623b13d6b1f4fU, 0x3b8e703e3de56e7bU, 0xbe3e7033bce93b5cU,
  0x3b857bbebdb94c60U, 0x3d484e8f3d8eca40U, 0xbda0e6423d3c4d78U, 0xbd346bbd3c7ee839U,
  0xbda58473bc9c6dadU, 0xbd32ddd9bd5ce1c1U, 0x3d76683a3c3c0338U, 0xbdbddce43d7b2790U,
  0xbd4cf9933cb47fb7U, 0xbb7018e2bda5ee2eU, 0x3d3d1884be5fe91bU, 0x3db73fb4bdada8e4U,
  0x3d2e7810bd4235f0U, 0xbdbc83d03d41ab7cU, 0xbcff0eac3df1fae1U, 0xbdd036003cedc500U,
  0xbd45bc353c0e00b0U, 0x3dd98b6e3dc6b18bU, 0x3d3be1fbbdb2528eU, 0x3d52f62d3bb19a9aU,
  0x3d4b2470bd62d208U, 0x3d8641c03cf18ac0U, 0xbc9d08503d907ccaU, 0x3d73d17c3d93b3b1U,
  0xbd32e5c53cf5f6faU, 0x3d0de8883d256b1aU, 0x3d952122bd377d56U, 0xbbca15903d5bd314U,
  0xbdae04413d42a294U, 0x3cc0fc74bd8f3fb4U, 0x3d715bbc3d4f0c34U, 0xbdb9238dbd90d9c8U,
  0x3ca1fabcbd13cdcdU, 0x3d757b0ebc513167U, 0xbc228f68bd91a525U, 0xbdaea05ebd0067a2U,
  0xbda0495a3d935eb6U, 0x3c1f2f703cb50b20U, 0x3da19c723d6ee20cU, 0xbcc06dd4bd9ed7c0U,
  0x3d217efcbcb58842U, 0xbdb74b9ebd5bdc0fU, 0x3d93c6e03d886710U, 0xbd0095f9bda020e3U,
  0xbd14186b3b6cec66U, 0x3ca6f7b4bc372988U, 0x3bbda32fbda79df5U, 0xbd839f473d269880U,
  0xbd4352ae3c5bece3U, 0xbcd0e298bce6490cU, 0x3d095bd4bd3873c1U, 0xbd54ac6bbd98a477U,
  0x3d060e82bc21d330U, 0x3cacfdb83cc10942U, 0x3d491d80bc46d0a8U, 0x3d8cc8c6bdd6823eU,
  0x3d2297ac3d5456a0U, 0xbd2cc13fbba58b60U, 0xbd8b38a2bd80b10cU, 0xbdc148e939937d00U,
  0xbdbc081dbd9a86c0U, 0x3cd6df7abb16eb00U, 0x3d49d7133d9745b8U, 0xbd6bd7f03dd83c38U,
  0xbcd6685ebc7a44d8U, 0xbce009cd3d2caff8U, 0xbd8e8f9cbdbf7387U, 0xbdb23a1e3d6d8c58U,
  0xbdb8f6debdb2631cU, 0xbd948bebbdfc250fU, 0xbcfe4c2ebdf703cdU, 0x3d353fa03b44a284U,
  0xbc81ace73da3d45dU, 0x3de8f5d33c0b2b90U, 0x3ca8da6fbcc07a8aU, 0xbc8068873c80ec8cU,
  0xbd1a04fc3d8d5d8eU, 0x3b86e3553da29c20U, 0x3da67628bd96c9a0U, 0x3c14acbb3d513a40U,
  0xbe3878bb3d90c99eU, 0x3d30af3bbbcf9310U, 0x3cf8168bbd973fe9U, 0xbd806122bcdac7cfU,
  0x3d8f6a933d96a6fcU, 0xbcc6be203d8f0fc4U, 0xbc19a300bcddde14U, 0xbe7ba9e33da45792U,
  0x3db23e26bd1fd9f8U, 0xbd9229eebda03024U, 0xbe4b46efbced41e0U, 0x3b9e6c2f3d1ef418U,
  0x3d4219753d80dbe2U, 0xbd89b042bc9b2b04U, 0xbce07e0cbcab11b8U, 0xbe77b7c7bd2b11c7U,
  0x3c8a9e1abd821307U, 0xbbbc11b63d95ce9aU, 0xbd919cb33d9378c6U, 0x3d0e86383c30f770U,
  0x3dbc2c6a3c71dc9fU, 0xbcfb3761bd6e26f2U, 0xbd2bd7933db3bf80U, 0x3d277de4bd2f9393U,
  0x3d9382ecbd42e39fU, 0xbb761e9a3db1967cU, 0xbd0064c0bd6774fcU, 0x3d2502493d92cedcU,
  0x3e0b13d23d7a5cf7U, 0xbc9f7e28bcc88e67U, 0xbd54d755bdbe00b2U, 0x3d93c36a3c832cb2U,
  0xbd77634a3da92990U, 0xbcf5a278bd8e5ae6U, 0x3d07aac4bd6b59a1U, 0xbd1883ef3cf67f5fU,
  0x3c9059c63d2c8c74U, 0xbd960f653d7ea658U, 0xbcd4d9f8bd87615eU, 0x3d387d583d929a32U,
  0x3c4965dabd9e2ae1U, 0xbcb96e25bdaf4f52U, 0x3da3de283cc85760U, 0x3d64455cbcb068a8U,
  0x3db4f9723d0d467cU, 0xbd381a56bd0cfab0U, 0x3dbd21b0bc887050U, 0x3c936541bd9a0b7eU,
  0xbd9b96023da1a52cU, 0xbc5baff83dad63daU, 0x3d1570b73d3bd4a4U, 0xbd91e507bda25899U,
  0xbb3098f2bd86c875U, 0xbda161fc3cd89eb0U, 0xbd99d5b23d1c1d73U, 0x3d429ffa3d997ea3U,
  0xbb8f2093bb324eb7U, 0xbc0c92c3bc87489dU, 0xbc0c8c083bfa98b9U, 0xba59ab003d5b3642U,
  0xbd022f68bd9e86beU, 0x3d0fb5f23db7b7f0U, 0x3d0e897ebd6fb792U, 0xbdb5b489bd259ec6U,
  0xbd85a8d4bd1a6c88U, 0x3ce636f13cb45230U, 0x3d42b0a03d84a51cU, 0xbd1a5656bd1faaf6U,
  0xbcc59994bd8b2339U, 0xbd070d84bd3cdb6eU, 0xbb4b67203d8948d2U, 0x3cb1aed8bd8172a4U,
  0xbd9dc382bd22ccd0U, 0x3c345c273d30b06dU, 0x3d844929bd3d16f2U, 0xbc01f69e3c87b3a4U,
  0xbd6bb6513c0ee104U, 0x3d7ea2613d57ba90U, 0xbdb107a8bd896cecU, 0xbd9b73a2bd87441aU,
  0xbd1a594abcf2f9f4U, 0x3d849f9f3d05e900U, 0x3d282f36bd11eee9U, 0x3cd866dcbd6aa1cfU,
  0x3dbb2a323d9bc49aU, 0x3dba9b683d068275U, 0xbda76ab73daceec2U, 0xbd7c5c0d3cecc808U,
  0x3c3006dd3db99352U, 0x3d76eb383d70a0d5U, 0xbda7f17a3d505735U, 0xbcbc035b3d015398U,
  0x3db3523e3ccf1528U, 0xbd5e035b3c74dc58U, 0x3cc8f189bcddd688U, 0x3c6315b8be2ef8faU,
  0xbd94c03abd944850U, 0xbc567a063d24ca07U, 0x3db29adebdee7422U, 0x3d037db3bdb98d71U,
  0xbc2e3f60bce25a60U, 0x3c67047f3dd506acU, 0xbcfdb6f8bc7184b0U, 0x3da6c4a0bcc9f498U,
  0xbd942b08bd68c623U, 0x3a3ef800bd8f1729U, 0xbd3ee59bbc813e47U, 0xbc2a4bc03ba81553U,
  0x3cac1e403d7d9cc4U, 0x3c0d2574bbf04d9cU, 0xbd6bb98cbc37a340U, 0xbd3084c63ad5e140U,
  0xbd42c3883d839fa2U, 0x39fd1500be2b6ddbU, 0xbd0a25ccbd82bf93U, 0xbdc38079bcc4fb53U,
  0x3d259f383cef7faeU, 0xbe0628133e012d7fU, 0xbd10bddabd0880d0U, 0x3c6709503dacf5f8U,
  0xba52d300bc8fc228U, 0xbca78b343d819386U, 0x3c3093c8bd1d6accU, 0x3d51e274bcd7c244U,
  0xbde30362bc127040U, 0xbd18822fbd5d9542U, 0xbd6060a7bd960b32U, 0xbd060412bd82d36bU,
  0x3dc491363cd2a346U, 0xbd8cbdf4bc64e88aU, 0xbdb87a3e3c830f62U, 0x3d289f543dc17e8aU,
  0x3aa0a6803cb2e1e2U, 0xbc81d3a0bce6f0f1U, 0xbd11ab64bd23eacfU, 0x3ca8dae83d5a97e3U,
  0xbdb9f2bb3d86a952U, 0x3b9a39ffbd7f0ec6U, 0x3d073e5abd7ed346U, 0x3d2114743d5ebfc8U,
  0xbdc36fc83d73dbfcU, 0xbe0bb212be1369beU, 0x3da37a943ce6a69dU, 0x3db74a8dbc791088U,
  0x3bf3c4923d94770aU, 0x3cef3cb23ce7cd7aU, 0xbe40560b3d4b08fcU, 0x3c38a1b0bc160054U,
  0x3db734c53dfdebdeU, 0xbd234262bddea347U, 0x3d629af43daad156U, 0x3ca0f49bbe0ce7e0U,
  0xbc5a8a98bc3f75c8U, 0xbbe686433d80f353U, 0xbd469cc4bdb1a154U, 0xbd43c235bdbe0b92U,
  0x3c44cbdbbd8dde1aU, 0xbaec18373ded38b0U, 0x3d7610c4be285572U, 0x3b3ce9f73d2605b0U,
  0x3d4a73843da873fbU, 0xbd380e23bc32d4e8U, 0xbd5c9ecc3d07abb0U, 0xbc66c1783c6f39f0U,
  0x3db2d6d2bc3a2b78U, 0xbc8053f53d13da9cU, 0xbd88b8053cb44f1eU, 0xbddf8d6f3d5338c0U,
  0xbdcab6933bd58590U, 0x3c0afb58bce58eb8U, 0x3d980dce3d568ce4U, 0xbc92e1383d16d9c4U,
  0x3c6d82583c2f30c8U, 0x3d9c6658bd41a0a3U, 0x3d676d3ebd53b7a4U, 0x3c1216c83d608220U,
  0xbd355360bdc158a9U, 0xbda265b73d131b38U, 0xbd2c6037bd4cfd22U, 0xbd473b6dbd96c765U,
  0xbca0c00cbd7b2128U, 0xbd2136393c8faaacU, 0x3d5f58a23dae85beU, 0xbd61cf9e3d6c3143U,
  0x3cdff0a43d1d813fU, 0x3d2403923d067e94U, 0xbc0229203d3850f2U, 0xbcd755c43da571c4U,
  0x3b6d3ac0bd6d9a21U, 0xbd1787093d0d6e44U, 0xbd9f26e73d1e164bU, 0xbd4fdba33cd9e145U,
  0xbd6d70463cf99870U, 0xbd4d6ed8bd872557U, 0xbcce03abbd447377U, 0xbcd967e4bdcbfed3U,
  0x3d3206843d53aaa1U, 0xbd36e5da39b69600U, 0xbd60a910bd47fb17U, 0xbae14340bc3d4a8bU,
  0xbd26fdecbcfbe30aU, 0xbdc3b7bcbd708336U, 0xbcee63eabdc3e6f6U, 0x3c162128bd9cf305U,
  0xbd88956a3bb1ddbeU, 0xbb73d220bdb8a436U, 0x3da2af6a3db16d24U, 0x3d56dbb4bddb8bb4U,
  0x3db43b083c08b436U, 0x3d306d673bda0349U, 0xbbe77ac0bda9e083U, 0x3ca8d7bcbda76981U,
  0xbdac6aa6bd991c4fU, 0x3d0d6eccbd74b8a7U, 0xbd6e1a403c955454U, 0x3d672a403d9c4096U,
  0x3ce1bffb3d217c77U, 0xbd5569333c517af8U, 0x3be256603ca80fd0U, 0xbce74d04bd5ff74bU,
  0x3a2aaa803d8dd819U, 0x3d824588bda178aeU, 0x3d87f683bca2007cU, 0x3cb44d4b3d9d6b4aU,
  0xbdcc371d3dafc595U, 0xbb304e2ebcd7e3e8U, 0xbbfe2b803db23ed6U, 0xbd3fc6a9bd88ca92U,
  0xbcff4b4f3dbe139eU, 0x3d6ffb583c1f7822U, 0xbd15d2223dad107aU, 0xbdbf06ac3d8c29afU,
  0xbd38a2bd3d2d11ccU, 0x3d6339d03da2c52aU, 0xbc3b33d0bd94d7f6U, 0xbd8eabfd3d77bf14U,
  0x3c05d7273d298564U, 0xbdb883c9bbfd7ca0U, 0x3c9f1bd4bdc52422U, 0xbdaeafd13d178fceU,
  0xbd7fbc84bcd3eddcU, 0xbd4f8b8cbdc389b6U, 0xbd13c59cbd52c15fU, 0xbcca1658bdb4f54dU,
  0xbd6ae35cbd9c9a23U, 0xbdbdd9b83cf856beU, 0x3c4fe3babdb68bbaU, 0x3d489dc0bdcd0699U,
  0x3c1a6d843cafd146U, 0xbda1affa3d4b8c10U, 0x398bb95e3d8d5bfaU, 0x3d8df24e3d287d1cU,
  0x3d7db7fc3c374a90U, 0x3d80cddc3d724252U, 0x3d4bdf48bd8598f3U, 0xbdce767d3cc5c708U,
  0xbd5ab82bbdd63574U, 0xbd6d5150bd72bcaaU, 0xbd82e1313d9b4dd6U, 0xbd7b27ff3db40f53U,
  0xbd267388bd3a6b19U, 0xbc98eca8bd8dbfc0U, 0xbdc71fddbc743170U, 0xbcaa9a66bdadeba5U,
  0x3da65028bdba8fd4U, 0xbcc4f357b98dfe00U, 0x3d299f91bca370d0U, 0x3d1685f53d615ca4U,
  0x3d848dddbcb89638U, 0xbd0d8059385aa000U, 0xbc048d103db446aeU, 0x3d93eac13ce7ddacU,
  0xbcfb086ebd4173c4U, 0xbd32a9f7bcf54d2cU, 0xbd2317a9bc03448fU, 0x3bdd3a403d7a2eccU,
  0x3c448b00bd181345U, 0xbdba8e30bd5abbe0U, 0x3d9768b23c8a5bfcU, 0xbd57330fbd0f2f0fU,
  0xbb66f8e03c8556ebU, 0x3db70fc13cf77010U, 0x3d8612163d5ef5f9U, 0x3b32ba1bbd60ba5cU,
  0xbcd0d8afbdb3aadbU, 0xbdbdee9c3cf26d88U, 0x3b8aea873c26c7ccU, 0x3cf093c8bdc6221dU,
  0x3d7a93593c660048U, 0x3d9625ca3a928f40U, 0xbcfc05603ce83a30U, 0xbd629843bb0faaf1U,
  0x3d6ce1fdbc3e971eU, 0xbd4e2ad03c53d030U, 0xbcc998773d98c360U, 0x3ce647aa3d9f1ed1U,
  0xbdb10a59bdbdd79aU, 0xbd9141cdbd898aa0U, 0x3d7106c03c236bc3U, 0x3dab23e8bb0530f0U,
  0x3cbbcf20bc3f78bdU, 0xbd5486323c5d9198U, 0x3d43e32cbc080868U, 0xbcaca64cbdba7b33U,
  0x3cbdfee2bc6aa378U, 0x3cf78210bd975780U, 0xbd1e02613c209f90U, 0x3d66960f3d856c1eU,
  0x3cd6b0b63d8faae8U, 0xbc4f94d0bda34b15U, 0x3d4a3d40bd894519U, 0xbd215c573d494c9dU,
  0xbc026a3dbd04a2d1U, 0xbd9e9618bd08cfacU, 0x3d8da0bc3d615167U, 0x3d6964203cb77224U,
  0x3c8312143c263970U, 0xbdb7a358bcf73634U, 0xbd91a38abc4a005cU, 0x3c8ef565bdc69a90U,
  0xbd921e28bdd90814U, 0x3da446863d7d73e4U, 0xbd5229683d34e77cU, 0xbd2510043d476040U,
  0xbd9951dbbcb079ccU, 0xbc8398e8bdaac184U, 0x3cf22410bd8bdcbeU, 0xbc3ea227bdb7e504U,
  0x3d12e7f4bbf230a0U, 0xbdbc63b63dac71caU, 0xbdc593f2bc3005f8U, 0x3c38f68bbc12fe74U,
  0xbd6e6097bd2a909aU, 0xbceb2d46bd1ad448U, 0xbd7fd4a9bdcb9fc4U, 0xbd22c016bc8dc5d4U,
  0x3d8fabaebd05236aU, 0x3c1923b73d9a5ca5U, 0xbd5fa4b5bdd1b0ddU, 0xbdc35e26bd2cd797U,
  0x3d9a6fe3bd749275U, 0x3bbc7ed4bce099bbU, 0xbd244df63d9ae4daU, 0xbd9c64aa3d82fe3aU,
  0x3da3bf4e3bc8b596U, 0xbcba4ad6bdbc18c0U, 0x3da00176bd6f12ccU, 0xbd4df8c4bda31b19U,
  0xbd5870c43d43f944U, 0x3d7be6483d59c20cU, 0x3da0fdafbdac40d5U, 0xbd734dd6bd5ad3b3U,
  0x3cb0517c3b3c79d7U, 0xbd79aecdbd932d47U, 0x3c282b503d99d3deU, 0x3bf1f4293d9c77a8U,
  0x3d7911243d62e96cU, 0xbd9874493d304abfU, 0x3d92acf63d1cfdb4U, 0x3c5d3ed03d9f5aa8U,
  0x3db8563cbdbe7e7dU, 0xbca5a7dcbd9a9b6cU, 0xbd069188bdb735c0U, 0xbdab49f4bd46da33U,
  0x3d497830bd89974fU, 0x3d9fbb6abd77c67aU, 0x3d08149abcebb664U, 0x3d96f5233d377828U,
  0xbdbb9e96bda5395fU, 0xbbb8a8c8bd852516U, 0xbc9894fcbd97e59bU, 0x3daa9884bcc41ac2U,
  0x3d6806983d8f8e67U, 0x3c0c457dbd806a4aU, 0x3d1c3b7bbc1e5fc0U, 0xbd439575bd8ad47eU,
  0x3dc288123d2d2ad4U, 0x3d6b1f20bc6d1a78U, 0x3d25160abd904d97U, 0xbd3847943d018550U,
  0xbdcc191cbdc0777eU, 0x3c8d8cd33daf77ccU, 0x3c9bf640bd32cad2U, 0xbd51ddb63c2a67f0U,
  0xbd5159abbdef6f5fU, 0xbcd7595cbd583f70U, 0xbb99b4f03c9460b9U, 0xbdaa4ebbbcaf16b8U,
  0xbdadd760bd8ed329U, 0xbd2c5d8e3d5b740eU, 0x3d838ad73d9b0700U, 0x3c9afc58bc0906b3U,
  0xbd2ddcb0bc4b7f50U, 0x3d0f18dbbda29a0fU, 0xbcd7bb6ebd69ac3dU, 0xbb8558b0bdc1422eU,
  0xbd8e87a53ceeb5e8U, 0x3d805fc03d30f099U, 0xbd0f84613be4ea25U, 0x3cef19bf3ca431bcU,
  0xbdc7756b3bdf15e0U, 0x3cc6549dbdad8489U, 0xbdc07fbe3d5cc52cU, 0xbd09b6c03d0adc9dU,
  0x3d4d821dbd8a24b3U, 0xbd907bd73cd6553bU, 0x3d2bf6cc3da017a6U, 0xbc647fd33cc93b4eU,
  0x3d892d86bbe7b190U, 0x3c99c2323d6655d4U, 0x3cbec7d23d8e6290U, 0xbd023be13da56ad0U,
  0x3d25e5eb3dc4385eU, 0xbd32ac4f3d5de77aU, 0xbdc363283d59ff06U, 0x3ba4d4473d0983d8U,
  0x3d9eece2bc688907U, 0xbccae5503d4d0d5cU, 0xbd69fd8bbce18f54U, 0x3d2aa00c3c846314U,
  0x3d1cf3f13dab1478U, 0x3b4a2a08baf46ce5U, 0xbd4a4faa3ce1e7b1U, 0xbd4c97dfbda799bfU,
  0xbd6e892e3d2095c8U, 0xbd076a60bc91108fU, 0xbd69ac6f3cad6364U, 0xbdc80c1bbda6991dU,
  0x3c325bc03d7a7b5cU, 0xbcb6b484bc9de674U, 0x3cf0f435bd4eede0U, 0xbe34ef053d9cb510U,
  0xbd14b40bbda7f8aaU, 0x3d88083bbc59cae0U, 0xbc779970bbde89e0U, 0xbdbb7e27bdb6b177U,
  0x3cce7ed4bd07a2c8U, 0xbc9753f43db83506U, 0x3da2c9d23db5ef12U, 0x3dba30fe3d4a9f0cU,
  0xbc2db0de3d4b666fU, 0xbc8394213c7cd720U, 0xbc74a9c8be2ba956U, 0x3d5ab6d83d20bd51U,
  0xbcdb6d68bb8f988dU, 0xbcde768e3d2e2098U, 0xbd726ab4bc998b1bU, 0x3aa40842bdd3c249U,
  0x3d7db4443d80568aU, 0x3d25866fbd563bf6U, 0x3d1da1dc3da17108U, 0x3d8f85bf3d25ac30U,
  0xbcd913683da3dec8U, 0xbd49225f3dbf4782U, 0x3d1da509bd52c923U, 0x3d2f80f0bd15c871U,
  0xbdd2f891bdfc76a0U, 0xbdefb316bd95600fU, 0x3d16fd87bd049886U, 0xbdb5df723c0c8398U,
  0x3c2901e0bdfad608U, 0x3da967eabcb41bb7U, 0xbbfef380bd435d69U, 0x3d93b7d6bc60f736U,
  0xbbc57500bd84f785U, 0xbd57db8fbd880cbcU, 0xbd270c583cb7d0fcU, 0x3dbaca95bcfac814U,
  0xbcd8ffe43ccde112U, 0x3bcd6500bcd076d0U, 0x3bc52ba0bd829614U, 0x3c900bc8bdbeee18U,
  0x3dc3b826bd794893U, 0x3d2ba2d43d5b3384U, 0x3c2a3ca83d3f2a78U, 0xbd9349ad3d80e36fU,
  0xbda779bf3d8a0c17U, 0xbd08e4103c574accU, 0x3ccd108fbcbf6efcU, 0x3d3d65963ce01624U,
  0x3cfee4e3bd6a1725U, 0xba8515bc3d91d1a2U, 0xbc2d45483d1ab244U, 0x3d97f6dfbdd6fa58U,
  0x3d927573bda0af2dU, 0x3d7e9c60bca59708U, 0xbcaa6cc4bcf677d9U, 0xbd8f6dbc3d3d61dbU,
  0xbc661fd83da8de1eU, 0x3a4fc69ebd02d4a4U, 0x3d9ae672bc15cf88U, 0xbd025206bd40154fU,
  0x3d128ccd3d44cc54U, 0xbd4f2773bd9c9b71U, 0xbd6cd38f3d584324U, 0x3c752430bd0b4da6U,
  0xbc2afb2c3cedbc20U, 0xbc2221a13dbd578cU, 0xbcf1ed9cbd3f3273U, 0x3d8acbf23c783e9eU,
  0x3db976023cf2bab8U, 0x3d2fe824bdea5580U, 0x3d0e824dbcc64cafU, 0xbb0a8c603d1a823fU,
  0xbd2495173d41d2f4U, 0xbd2a80503d4e2a48U, 0xbc890cb4bd45b853U, 0x3d5f5040bca3e888U,
  0xbdb5dfbabcba2070U, 0xbcd92f603d8aedddU, 0x3d9ae7a2bda5ba1aU, 0xbcf38ca13cfa6cd0U,
  0xbc8a752e3d306df5U, 0x3c3215f03d8253b6U, 0xbd1e64ee3daf2362U, 0x3cc3fc59bd96682cU,
  0xbe13df683da52510U, 0x3d8b1bcabd65d926U, 0xbd00f4253ca6fb94U, 0xbd492cfcbc6c72ecU,
  0xbd676494bdab0a18U, 0xbc4e17cbbd6ced70U, 0x3da50e8cbd28934dU, 0xbdb9510cbd921a77U,
  0xbd165e583d2fc6b8U, 0xbdac662abd44ea89U, 0x3d43b09cbd3ee9eeU, 0xbd14e6703d9e4c98U,
  0xbca55c0a3c6b4790U, 0x3b27ee5ebd3933a0U, 0xbce707ad3da73faaU, 0x3dacb49a3c858bc0U,
  0xbdb52ab33d0479bcU, 0xbdca3257bd038d6aU, 0x3da64d90bce3e018U, 0x3cef7aa83dc1d168U,
  0x3d812a66bd3254eaU, 0x3d1521373c2b58d8U, 0x3dab2716bcbb0fc1U, 0x39f8df97bdb902d9U,
  0xbb23d5a7bd17ed8dU, 0xbc570c203da5263aU, 0x3c0ab07cbc3c37b3U, 0xbd1103f33b80e3faU,
  0x3da0a29a3dab22acU, 0xbd88139a3d864b76U, 0x3d3b248cbcc7385bU, 0x3c6977b03da1a8eeU,
  0x3d30713cbd981459U, 0x3b924a30bd09d8d6U, 0xbd8d76f83d875420U, 0x3d23a924bd8ae014U,
  0x3bc26fcd3d779f60U, 0x3dc029983d9e2208U, 0x3d839f76bca18722U, 0x3d765168bc947d2aU,
  0xbd9f853dbc9ad332U, 0xbd28fc543b9df660U, 0x3d70ae743cd2a558U, 0xbd3f129f3d577813U,
  0x3c8adfdd3cde8950U, 0x3d4df0b4bc2a8ed8U, 0x3db283a8bd834774U, 0xbd9f1fefbda8cc8bU,
  0xbdb48a663c96c4f0U, 0xbb2937c03c0ed360U, 0x3dbf27fe3daf9449U, 0x3d98b5b0be062a8eU,
  0x3d76d2f9bd11c9e3U, 0x3c918fe33c0304b6U, 0x3d8994883d65f790U, 0xbd9f09acbe0ea3c1U,
  0xbc80b6c4bd7fe224U, 0xbc372757bd0da71bU, 0xbcbb8e363b871f2eU, 0x3d52b8debdc39ab8U,
  0x3dc38d28bcff754dU, 0xbd1ba23c3d6b9630U, 0x3dc43a78bce92500U, 0x3d1670903da5f6dcU,
  0xbd90835f3cd5538cU, 0x3d857c923cc750ecU, 0xbabcc5803da074dbU, 0xbd85bc2e3ca2459aU,
  0x3daedaeabd480f8fU, 0x3d99046cbd6af3eaU, 0xbd47657cbc618090U, 0x3d5814f1bdf17588U,
  0x3b2e22003d0bf137U, 0xbd294dc6bd5875a1U, 0xbc6f9430bb38a161U, 0x3cf9aaf23c9165ccU,
  0x3d9edc94bb04dce0U, 0xbbd6a45f3cbd2a9bU, 0x3d0b80b1bd910998U, 0xbd66bd9b3ce2f922U,
  0xbdbc49c53da80402U, 0x3d502442bdebfa72U, 0x3d8e456c3d8d6b64U, 0xbd07bdf43cc41718U,
  0x3cacd37e3db84ef7U, 0x3dc183823c8d842aU, 0xbcde6e43bdd73166U, 0xbd6746223d218c00U,
  0x3dc2448c3d7683c4U, 0xbc26afc0bc54ca18U, 0x3d0d8b79b9791400U, 0xbda6280fbd1815c5U,
  0x3d816ba43d81cef3U, 0xbc0e8541be115bb7U, 0x3d3774403d2441eaU, 0xbda3ea81bd3e8dc7U,
  0xbcaa248cbd01206cU, 0x3d4a00d8bd4cde65U, 0xbb84e9cebc74a350U, 0xbcc405243d6a2f84U,
  0xbd721193baa7b04dU, 0xbc4f7980bc9d2481U, 0x3d582290bc99386dU, 0xbd49ccc2bdb20154U,
  0x3b2a1600bd24b2feU, 0x3d5760483d7dad83U, 0x3daa890f3ce34b9cU, 0x3cfbcd093cbbd820U,
  0x3c051560bdb634e4U, 0x3ce3e10fbd4589c7U, 0x3d01f28abce28bb8U, 0x3c2b8cb83c8f05baU,
  0xbd9f5b7a3d0e387dU, 0x3d9624bc3d96075eU, 0xbd1dd8db3d578714U, 0xbc88998d3d876948U,
  0x3d39be30bcef5f50U, 0xbc7306d8bb5ddb00U, 0xbd94e021bde63a9dU, 0x3ca06e60bd7bb1fbU,
  0x3e0f6a3a3da60b8aU, 0x3d8c889cbdba41caU, 0x3b3aa0003d278718U, 0x3d03abb03d7ef038U,
  0xbdb4b9b4bd697805U, 0x3d5cefd83d957031U, 0x3d829d86bcbaf9e0U, 0xbcee6e50bc0e6d70U,
  0xbdb77e10bdaedea0U, 0xbc216420bd8e53b8U, 0xbb11b16ebced0aeaU, 0x3d9423723cde29e7U,
  0x3daea91a3da12474U, 0x3c1ae440bda3bf9aU, 0x3af3d50abd130114U, 0x3d966ea2bdba4100U,
  0x386d08003d80aec0U, 0xbe5fbcc5bbf333c8U, 0xbd227bdebda27a71U, 0x3d3f80593da634c0U,
  0xbc8cafde3da6ef84U, 0xbcbfe7363da7e04cU, 0xbcff0d4d3dc1b91aU, 0x3d27385c3da569a7U,
  0x3cf668adbda35a3bU, 0xbdb9a7c4bdc6cba3U, 0x3c5a0fb8bdb2f326U, 0x3da48948bd0f3fecU,
  0xbcd5c6903d89b876U, 0x3c08661fbd0a562aU, 0x3d05ac4abdc41c3aU, 0x3cd0d9dabd119c29U,
  0xbdd11ef93c7aaf08U, 0x3de92b233cafcf88U, 0xbcb8132cbcdbedcaU, 0x3d9413093d402ab4U,
  0xbd1388263d226ed1U, 0xbcdf5dd8bd86e6d6U, 0xbd3f9bb8baab0b40U, 0x3db64feebd463c93U,
  0xba09aa16bd736fb8U, 0x3cf185e1bdcac254U, 0xbba00f003d3308c4U, 0x3d1c6d5abb634a20U,
  0x3c51d6c33b73f120U, 0xbdc05b54bd9a9a55U, 0x3d6107c0bdbe018aU, 0x3d477fa0bdb1f91dU,
  0xbb4c9b00bc41e1a8U, 0xbc659378bb9bfd92U, 0x3cb90c7a3dade22dU, 0xbc62607e3b99a2c0U,
  0xbd274bb03d980f09U, 0x3c9b21123d079890U, 0x3d3017f0bd4f97bfU, 0xbd6553d33d79a282U,
  0x3d9cd67ebdbcab89U, 0xbd99ea3fbd30589cU, 0x3d528c7a3db8f800U, 0xbc67cd10bd52b21bU,
  0xbdab55f7bd6a0782U, 0x3c8ea5413d0a81f8U, 0x3d6d5a783d616da2U, 0x3d56d124bd1776b1U,
  0x3d99ad963d39d135U, 0x3bca1df4bda1bb4cU, 0xbd5506b53d690ec4U, 0xbda264d03bc01f09U,
  0x3d076f0c3d211df8U, 0x3cfac88fbd6d8797U, 0xbd8860d7bd59e625U, 0xbdda89adbc2717c4U,
  0x3c6fb720bda870f0U, 0xbda322a0bd0927b8U, 0xbd9a607a3ca4c2beU, 0xbca991ccbe0bfe8eU,
  0x3dc93914bdbe7d05U, 0xbe245ecabc2aa63cU, 0xbba49581bd8d199fU, 0x3d6939b0bd874e83U,
  0xbd8bf6ccbdc18d3bU, 0x3cf78090bd15b028U, 0x3d934716bd89deb1U, 0xbd8ada35bc5ae998U,
  0xbd85f9e2bdaff666U, 0xbcf12ea7be1e5fc5U, 0x3d7c15a4be3aa6c2U, 0xbc2a53dcbcf7d174U,
  0x3c0f9140bb379440U, 0x3c5650f8bda619e0U, 0x3d2273343db75858U, 0xbc9ec0c43c71db58U,
  0xbdbc37023cc28ca7U, 0xbd072cd2bd3dd11dU, 0x3c519d28bc8d85d4U, 0x3da7aa1f3c155726U,
  0xbd5096fa3d8db77eU, 0x3caef4703c983f9dU, 0xbd066ff63cde1948U, 0xbd8c354d3b392220U,
  0xbd6659b9bd7dba3dU, 0x3d8b456c3d33d040U, 0x3cf7e650bc39e7e8U, 0x3b56160ebd346df3U,
  0xbd73ff583d658134U, 0xbc0a84d83df93f1cU, 0x3c7e0a103d9db49dU, 0xbd915bf7bcb81961U,
  0x3d87f2cabcdae75cU, 0xbd6cb0a5bd8b51a4U, 0xbd23bb383cc2222cU, 0x3d2af474bc34cb38U,
  0xbcbff7f6bd5d5825U, 0xbd5d3071b9119400U, 0x3dbc9f3e3cf5ef60U, 0xbce5908c3dacc67cU,
  0x3d196ace3d0dc89cU, 0xbd7e4665bdae690eU, 0x3cb556ccbdad8608U, 0xba163c803d1caa37U,
  0x3d464aa43d0dae38U, 0xbd85637ebcc83eb3U, 0xbe159ffebd427beeU, 0xbd58d41b3d3fbf80U,
  0x3d78aed7bb13657bU, 0xbd1eea2ebd9e42b0U, 0xbdbc6fcd3d49d4a1U, 0xbd23a8163d5a3e3cU,
  0x3c4113b73c439398U, 0xbd31ef243d9164bfU, 0x3d9758803d695cc4U, 0x3cc6db5a3cd04110U,
  0xbd3e84d33daed11aU, 0xbd196e5bbc8fd3ecU, 0x3d65026bbd613c0dU, 0xbe0bf9aabd0bc9bdU,
  0x3d82ab353d07d650U, 0x3cdda2e03dc0530cU, 0x3d9d464ebd0b298aU, 0xbe38c606be60570aU,
  0xbc4b8b50bd1ea745U, 0xbdadf5ba3d3f19bcU, 0x3be91ed43d223f68U, 0x3d6c7769bdb91fdfU,
  0x3d772b21bdc2e30fU, 0xb9cc35e0bd265e85U, 0xbc438818bca0818cU, 0xbe8c52093d4ba5b7U,
  0x3d21cf743d4885c0U, 0xbdda96d93d920921U, 0xbc95be6ebd3f5fe3U, 0xbd9338203dc51ddeU,
  0xbdae869bbd96a44aU, 0xbd47e8c6bd50cb42U, 0xbc8ee914bd966cd5U, 0xbd21925abc7ab707U,
  0x3d519250bce2175fU, 0x3dc23706bcbfc654U, 0x3dbb5f6c3d4d6f5bU, 0x3d55b94fbd894af3U,
  0xbd5ae24bbd3986e8U, 0xbd67703f3d51eb5bU, 0x3d28f4eb3db7a2e4U, 0x3cf7ccd83da7ba3dU,
  0x3db12f123dafc212U, 0xbd41708c3d82e11eU, 0x3c4587803d93d203U, 0x3d09ce803e092ba9U,
  0xbd8dbde63cf8b22fU, 0xbde01a01bc937dacU, 0x3d934d89bd8a3eecU, 0x3d6be607bd923672U,
  0xbe014b8f3d403928U, 0x3c8182303d6257baU, 0xbd11c7cdbd97854aU, 0x3d399b3cbb08868cU,
  0x3d1c0acfbd077b4aU, 0xbd2bd8aabd68fbc7U, 0x3ca386f03da4d200U, 0x3d89ffc5bdf48c1eU,
  0xbe0b3d263d45561cU, 0xbba9ead03d562848U, 0xbdbcc6013d8a39caU, 0xbd5dc5d1bd95e9f7U,
  0x3db02b223d3e43f8U, 0xbd9c18b83cb0c294U, 0xbc1cd3a0bdb9e9fdU, 0xbd2ef5243c362d38U,
  0xbda90684bd1d826bU, 0x3d63e9be3da8c27dU, 0x3c49ef19bc168932U, 0xbcb6a7fc3d88b958U,
  0xbd3e066a3da41d2eU, 0xbde99c953cabf8ecU, 0xbd85f7fa3b1e6cb1U, 0xbd946800bc364981U,
  0x3d90264ebd51e740U, 0xbd4cca1e3da48064U, 0x3b5636c0bb1bb0e0U, 0x3d7ab2b43b40b360U,
  0xbdbdd0f6bdcbe26fU, 0x3b5575e0bd934cfcU, 0x3d3250ccbc8bd799U, 0xbdfc32a5bdaf5372U,
  0x3d0ce35cbdc2b97fU, 0xbc5da4edbd813263U, 0x3d18f2d83d49360cU, 0xbd5e29603d836416U,
  0x3b232f80bda57183U, 0xbd452d65bac004c0U, 0x3d01950cbe154920U, 0x3cdc83f5bd264fb5U,
  0xbc25ca603d0fd7acU, 0xbdb0a6053c33e8e9U, 0xbd9afff73da3602fU, 0xbda9ec05bd96c92fU,
  0xbcdffda5bd9acebdU, 0x3cb7651fbd5ce2f4U, 0xbded2aedbdc61ff3U, 0xbd29e8193da7331aU,
  0x3da05bc73d42d342U, 0x3d39a393bcabcdcfU, 0x3ac8d7ecbbc5761aU, 0x3cdefb4dbd8e18b9U,
  0x3cd17cd03dbd591aU, 0xbd85e9b0bd63ca47U, 0xbdcd54e53d83482eU, 0xbdb0d9c23d22da61U,
  0x3db6bfecbd9a584bU, 0xbdea49323d65d17cU, 0x3d99adfe3ca8dbd4U, 0xbc0769a23d7b7258U,
  0x3b325e80bda2aec9U, 0x3e0c2374bd65e5a2U, 0x3ca8182abca9f108U, 0xbcbd9e94bb54c480U,
  0xbd7286463d8b61c5U, 0xbdb4a41dbe3162abU, 0xbd7f272cbd508189U, 0xbdc09c113cf20158U,
  0x3d596914bdc54adaU, 0xbdbc505a3d90faa2U, 0xbe1796fabcab1f2cU, 0xbdc50dd4bbcc5d40U,
  0xbcaffee83d79a4ccU, 0x3c83b2153cb0e570U, 0xbd33dda6bd42fd51U, 0x3c9b84a0bd1a53d0U,
  0xbd23b96d3db5b0caU, 0x3dc74590bb67f776U, 0xbd7311ddbcf60200U, 0x3bbbc9ad3c49a888U,
  0xbdb72c26bd202d87U, 0x3d88ce4abd0bc9dcU, 0x3dbe2b6ebd8a242dU, 0xbd6595e73c80f918U,
  0x3d01e9883cedfe40U, 0xbc0e5d1b3cdb04d4U, 0x3b5377003ca61768U, 0x3d03cd10bd13dc8eU,
  0xbd34b979bd871738U, 0xbd9faa3c3bd26d34U, 0xbc6b2e00bd5e9b0fU, 0x3da581943da30f1cU,
  0x3da3c0dcbd924555U, 0x3d282d083dfa1595U, 0x3da1b3453db6d1e3U, 0xbd6ee0103d2d3789U,
  0x3d598740bdb816a5U, 0x3cebdfb6bc345719U, 0x3d5f22a63d5712d0U, 0x3ca92c60bdb9925bU,
  0x3d8ec2103d3f03bcU, 0x3d484365bd79d082U, 0x3d2149d4bd72c708U, 0x3d7c3dc53d8b026cU,
  0xb9a705b2bd5b369cU, 0xbddcdb123d809e88U, 0xbd25ae913d89882aU, 0x3dc16c58bd1e27feU,
  0x3d8dbae03d6429cdU, 0xbd5138313d2ffd8eU, 0xbd6f12823d82b210U, 0x3db7d425bd85adbbU,
